bca528d3
3c5a9cc3
bb02e73f
3c86e3c9
bb845343
b8d75089
380cedba
3cc40f24
3bc812e9
3c7d97ac
3bbbe52b
bc830870
bc0baa9c
3caffc4d
bc86049d
bb6d483a
3badf8a1
bc10f5ea
bb9393a6
3cb7df8c
3bb9a0d8
3c8e30ce
3c0ac052
bbb4bfc8
bc792f0d
3bc75b2b
bb1df2c0
3b414990
bc8167d8
bc4f0b49
3b1573f9
3c1c5a8c
bc88c8a9
3c44fb75
bb99dd29
3c3fa864
3b91e6e4
bc45452a
3c70c055
3bad2495
3ca38365
bca1c945
3ba759ec
3bfbe911
3b6d8594
3c6c0525
3c709d01
ba5d6f76
bb2def11
bbaf2ac1
bb836052
bc378ecd
3a120a6a
3cb31dde
3c9547a4
3c737428
3ae0f62d
3bb9606b
3bb9cc05
bb3664a3
bc3e1a3c
bb6d08e0
3c9b7a8e
bcb0bf04
bbf70604
3c6b313d
bc3b8bac
3b3203f8
bb502611
3c5c4828
3c573d77
3c243aca
3b7e1d4d
bb86efc2
3c86e182
bc50f549
3cbb3755
3ad0abf7
3c380dcd
bb309ba1
3c659526
bbd8b31f
3b347593
3c97b3c6
bc2e6e5f
3c55623b
3ca99f74
3c5c62de
bc2fdd7b
bbe22d00
3c500626
bc86f3bd
3ca98803
ba96538b
bc2db193
bc6bfd2a
3c816462
bbdc3b1f
3c6f3429
bc841a53
bb26cbcb
3bcea7a3
3b4e4d80
bb8e2bf5
bb757330
bbc6abdf
bb977317
bc3ad824
3b913e18
bc634aea
bbadfffa
bb608a1d
bbd0e22c
3c2f154a
bbef39ce
3b4e830a
bc24205e
3c0dde82
3cb73967
3c826506
bbc0f17e
3b7d43df
bbad2f8a
ba5cc3cc
bbfa98a2
bbffb017
bbb47aed
3a844f52
bb00be1a
3c99395d
3c806bc9
3b85ec87
3c8b0e8c
3c4c91a8
3ab51e6c
3c13b72a
bc479410
bc09b4c5
bc54e80c
bbe47b3b
bba10a92
bc248d69
bbe4846d
bc7c93c1
bb22490d
3cb4e9a7
3c4c5650
3c8a873b
bbaf05c5
3c2743d4
bbe3374c
bbcc091e
3c2cfbf5
bcaedbd4
bc1c5caa
3c9b956a
3bf9ec10
bc670658
bc49ebd6
ba98942d
bc8396a5
3c992ed8
bc74fd47
bc70d718
ba95a23e
3bb976f3
bc8d42a4
bca19822
bc0ccbaa
3c1d62c4
ba926db4
3c9d388f
3ac87e00
3c502dde
3c499927
3a852cfb
3c190a50
bb62a3b5
bc240a98
bca29870
bbf8c5cb
bc8c93ff
3c637d3b
bc87c65d
3c9a7574
bca61501
bbd98838
3ca0bf90
3c235fe4
bafc9418
38ba3a23
bbf4a005
3c578ccb
bbe31523
bc64a057
bae0590a
3666dac0
bb8a3f2d
bafe878e
3b484967
3c6fb52e
bca40c06
3cae5a05
bc6459d0
3c3df34b
bb44f1ef
bc7c4826
3c4dff39
3c6ee96f
3b4a7c66
3bdcebf6
bba50948
bac392df
3c2067d9
3c398926
3b880d9e
3ca00ac8
3b8e1473
baa64eab
3c8ea1ab
3ca1da31
bca9a17f
bb6375f5
bbe7d226
bc5044aa
bc003d97
3b103517
3b38d73b
b886a31d
bbc11c8f
3b86685c
3c09daa5
bc650e9c
bb0a0a09
bc882d7b
3c158a5c
3c290796
bc42dbb1
bc13268c
bc1a447b
3c7b0a57
3c3a296f
bc9c3fe7
b85af153
bbe33a73
3c370b56
3ba9ab9c
3c612bba
bc6723f1
3c29fd56
3c99c400
3c68f38b
3b31266d
3c24a386
3b401bc2
bc8e1022
3cb044a4
bc6d086b
3c8ee5a5
3c22b6ea
bc783fd8
3c7cbbf4
3c805df5
3c9396d4
bbd39e7f
bb1d212c
3c92fc39
3bc1e52e
bc4d76e5
3c31ccb4
bc7a1fe8
bc8a7b1e
3c9aed06
bc998b9e
bc35f6b8
bc00c726
bb4893d8
bbf2a483
bbb89548
bb84ff29
3c0c9419
3b6e10a5
39926220
3bd74fa6
bc06c253
bca9ca2c
bb953542
bc844c66
bc94c77c
3c030a27
3c0090d8
3bfcbeda
bbb01a24
bcace6f6
bc95466c
3c5ee793
bbf29b40
bc37c88b
3b7a90aa
3ad1573a
3c8a93de
bbb4d326
3b0757c5
3c19a37b
bc3b2bff
bc84ed30
bb8f22d5
b9e86dac
3c960985
bc2148e7
bbdaccd9
3be451dc
bb13184b
3cbb4203
3c1895e0
3b644e0d
bc1cc274
3b05f6ad
3b7d9411
3cb25298
bc225fa5
3c3d1925
3cbb1ace
3b3712f4
3b9775a2
3c081680
3c467cdc
3c6ba879
3c74803c
bc9432df
3b8e94dd
bbd20d76
bc9ae171
bc709532
3cc3d8e5
3ca622c3
bcb37fce
3c5c68f6
3bc3203f
3b51f7cd
3c888640
ba43a48e
3bfe7867
3c513881
3c5da19c
bb2fe5a9
bc84691a
3c42ec31
bbcbd5db
ba9cd200
bc0193c1
3ad5778e
bc08eef8
bad9d99d
3c43edac
bbc609d0
bc8303be
3c24e2d7
3ca4d7c0
3b8c076b
bc4fecf8
bc0582fb
3caef011
bbe5c79b
bc788b3e
bc994c52
bbd84f64
ba9790cd
bc2fbb14
3c85f98d
3c701fb1
bc9b9770
3b5454db
bc88e741
bb3235c8
bc0036ab
3c7cee7a
bae62ea6
3c9a60e1
3b17df5a
3c314bdc
bc3a2682
3c9a0574
bc71fb91
3ac445f3
3cb6ccc5
3ca651c8
bb0f9be1
3b87fed0
bc82a01a
3c09c460
3c35edce
3b8e9cb5
badf3e8c
3b8a6acc
3b8318e8
bcae9c0a
ba8fa104
bc315000
bcb200b6
3c2afa6c
b87ceaa2
bbc6420a
3bc89150
39e5f9ef
3c6d344b
3b04e23d
3ca2c56d
3c0f19fd
3c85dbdf
3c69a60e
3b850c93
bc540aae
bc517cdc
bca582c1
bb56c339
38e4df68
3c33b122
3c75211b
bb88a7ba
3bd3b213
bc242e77
bcab20ec
bc50146e
bc0f8bec
bc9e6137
3ca0a96b
3c7c4080
bbad10c5
3c802913
bc71dbfa
3b8fb8b0
3a9257a8
bc860c5d
3c0551c5
b9521da2
bc407138
bc3b2030
3c8bee7c
3c9c9a8c
3a4a3a87
3caaae2f
bb89a075
3c93123a
3c45f262
3c9cb64d
bc2638f0
3a73fc19
3c616286
3c84c966
b9875244
3ca8753b
3c994551
bc9d0470
3c9a8b45
3c1ef0e5
bc151792
3ca7342e
3c93670f
ba142033
3b496b25
3b782f2a
3c4501fe
3c82d84b
3c940366
bb99cbe2
bc1542c0
3c6a63cf
3bc3f4c4
3b023974
bbfb436f
bcad3be1
3c4f5b12
3ae8bc0e
3c3cf4ad
bc06202b
3c46ef6e
bcb80821
3c70c04b
3c4da988
3c7d34bb
bab8e92f
3aa4df84
bc983e6e
3c7d4253
3c2851fd
bc8924a9
3c9db308
3bc3d1cf
bbfba89a
3c98dc21
bc8e25d8
bc9a0bca
3cb68b24
bc9c2727
3b7b49da
3c1566ce
3c873a94
bbfc4bfd
bc5617a2
3c127b6c
3bf99a92
3c4e6d24
bc5b91f3
3bccb7d4
3cac8cab
3c377853
3c73d84f
bc1d29d5
bbf1f7ac
3c1d5c07
3c9d8714
bc271d21
bc9b473e
3ca56f09
3c773632
bbda5267
3c0fef9f
3c477759
3c83b176
3c06b1db
3b40485a
bc4c66a5
bc64b56c
3b3c1e8c
3b93cf01
3b918ff3
3c953446
bc734b50
3cbfd52c
3c0a238e
bc0d3993
3ba5d900
3cb61fc6
bc099658
3ccae713
3c5c8512
3bbd51c9
bc835ef9
ba8497b2
bb8f7766
3c71af1c
bc1e63e1
3c80ef9b
bb656f01
3bc7acdb
3b53b929
bbb153da
bbf77f57
bb780fbe
bc7ec238
3c34ad83
bb69e6f9
bb788a37
3bf1c76e
bb132e79
37c9539c
bc852f2d
3c873792
3c66c80e
3ad796de
bc01bca0
3c090084
3c3dd965
bb5c5407
3c33a3b1
bc35e963
bc61f7cb
3c70dc57
bc2be6f2
399b8b50
bbe2c821
3a04f0c9
bc88791c
bc9422ab
bb203d8d
3a886993
bc4d1814
3c60ea5b
bbfa12b8
3c95a5c6
bba3a509
bc5133d4
3cb0661f
3a7acac8
3c0f5214
3bc7b6b2
bc2171af
baf997cb
3bd71435
3aea72d9
bb271724
3b1a3264
bcaaf98d
ba6f267a
bc875f4a
bc095d6e
3c4bf264
ba0dc82a
bca6cb0e
3be05540
bb4b5610
3c8c0d8e
3c917a85
3be0d423
bb041b7f
bbcbf530
bc3698e6
bc81d8da
3c08fca3
3cc634ee
bbd63833
bb9c6db9
bb94874c
3c73d990
3bdb9647
3ba58037
3bd33b53
bc2261f2
3b7a627a
3ba25716
bc2b1c42
3c83f6e9
3c844f60
3c9800a4
bc7a93c4
baaccb58
bc490cb4
bc718201
bc3dec15
bb99c8ec
bb0553d2
3caab4f3
bc856228
3c8d7acb
3cb70f07
3b640d4a
bbe5234e
bc291880
bca7c4a7
3bc5279f
bc8f7765
bc70dc83
bc7ce91e
bbe7699c
3bddc366
b8c1fc8f
bc8a546a
bbd3e608
bc24738f
3ca1edfd
3c4d5d21
3caf5b58
bbb6c598
3c8b08ca
3c972505
3c9cdd07
3c4558e1
bc47b653
bc76dc50
bc8e5c0b
bbec38b8
bbae402b
bc347244
3c402107
bc18067d
3aa91b06
3a8f809a
bc667de7
bc39fa2a
3c8ffca1
bbfc8ff3
3ba4c51e
3b6ae26e
3c8f9b88
bc51c665
ba95bedd
bbfa205c
bc21f6fe
bc568428
3b10cd3e
bcbec84e
ba806adb
bc9b3a1b
3bd845ba
3c4bf125
bc8fbb42
3c644330
ba05e384
bbe2039c
3c75ca4f
3a30c1d4
3a045223
3c92d186
3cb71491
b9946b4b
ba0ab3d6
bc5ae730
bbdf8687
bc3fb026
3ca4d61d
bc454f3e
3c9ec628
bba4a23d
bbbd39d8
bcb7565f
3c3eabe9
bc7b0d5b
bc40e778
3b32d630
3c543628
bca17028
bbd8f135
3b9defc0
3a959872
3ba1dab7
bb94656e
bbf29d05
3c5d5d92
bb34fcae
3c255046
bc08c25e
bca69d74
bba18cb1
3c55b7c6
bc9e9987
3c87a790
3bc8c01a
bc6f9f0c
bbd1828e
bc3d569f
bc255047
bc5462b5
3b3c9b89
3c21139b
3b7f512a
3bcfc5a6
3c84e1ff
3c70798d
bc15be21
bc39fa02
3c03e9fe
bba7b8bf
bc82330a
3b19b232
bc100d4e
bc0ad0c2
3c7e2263
bc689db7
bcac8dac
3c8f1198
3c6172fa
3c944d52
bc94ca01
bc769a79
bc62c454
bc98765f
3c14c83b
3c5190e2
3c22f1ce
bc65c327
bc4413b8
bc6f4c3d
bc3c07cf
3a8e2b74
bc2ea368
b9b0b1ca
bc576423
bbf12e0d
3cb462cb
bc8fa891
3c82627b
3c0729e6
3accba2d
bcb26cb4
bc2c5d26
bc91eb08
bca4ea4c
3cb857ec
bc640563
bc2cf268
bbe90f6e
bc9512cb
bc48a468
3cbce426
ba56d4fd
bbed6072
bbbb9ae5
3bb94241
bb4435a0
3c2c1272
bc0b74fb
3af57540
bbd7212d
bb3b0684
3c8a8c44
bbdecb14
bc7d6455
3c6507ea
3cb95227
bc3918ab
bc8243b8
bc688650
3c49e766
3c6dc240
3c9f481b
3a3e6226
3c86d611
bc350521
3bc1d36c
3b2ad61c
3c07f080
bc9c90d4
bac916b5
bc4212d7
bb8a519b
bc24f99a
3cadf708
3c569a8c
3b78731d
bc6b3062
3b9c9bfa
3a40b194
3c9bc2a6
3b6627d6
bc993b3b
bc6587cf
bb91dd83
bc11ded0
38e9283c
bc65f2fb
b9747a88
bc788584
3c94aca4
bcaf1aba
3cacf059
bc9114f0
3c5283b2
3c532ca8
3c1834d3
3c2f0350
3caeff58
bc23b142
3c4fde3e
3ca4e85a
bba6be1f
3c87d846
3c7e435c
bc33edfb
3c02fb13
bc6cb563
3c7bc23a
bc0b75b7
bbe3f948
bc89d3ab
b8ec26e3
bc855741
bbbccbb4
bc79caee
bc2a8af7
3b947dd1
3c4b069e
bb6920d6
bc3cf817
bc9a1aca
3acb7d28
bb1b40c1
3b456d0b
3c8a43d3
bc13a71c
bc4edc79
3cb341ca
3b55f89f
3aa0689e
3bb98f6c
bc9c980d
bcb4111e
3cae9bbd
bca3935e
3c01d03d
3c5b43a5
bc12d3a8
bc8678b7
3cc560bd
bca2b740
bc8b2c9d
bc905cd2
bbacb621
bb105bf6
bad4d52f
bc3020e3
b8ca95bb
3c93ebcb
3c743bf5
bc4f72dc
bc32335d
bc1dcfc1
bc68f6aa
3c7c8e0c
3c869345
3b25d0ac
bc3c4836
3c7aa36e
baa1e83f
3c5898b5
3bbe38eb
bc8b8818
3caadd8e
3c487263
3b9416c7
3c3035ea
3c360912
bc6a93cd
3c070eec
3c5499bf
bbc4942a
bc125588
3ca103ff
3bbf1116
39f385fd
bc39a4f0
bc81dfec
bc85ad0b
3bacd9f5
bc7c1c31
3c8313c4
3bc41641
bc52a69f
3c064bca
3c810571
bbd5cc7f
bb52075f
3b3bb1b2
3c430868
3aa3ba2f
bbbfef9e
3c362571
baf5eacb
3ca11e61
bc339d93
bb00f6cb
bcb8abe5
3b57440a
bc03b83c
bc2bc855
bc2c92bb
ba124d64
3ba8f422
3c867078
3a9e118a
3c318d90
bc15a818
3b6b7f62
bc6d54af
bbdf7225
bc40ebe8
bb858430
3b77bcb2
3ca151ee
b9e8ece9
3c52506f
bc081440
bcaa4179
bc2d30ee
bb87ffd8
bc615ae5
bc3d6eb3
bc459c67
3adcd536
3ca14de6
bc77fc79
bc0b78ed
3c288366
bc59beea
3bf70bee
bca80898
3cbaf135
3b52f602
bc993c8e
bc80faa5
3b1f8dd8
bba8212f
babf5c6e
bba9bb09
3bf899e5
bc4ce201
bab1acbe
bc9e799d
bc841b72
3c92a4be
ba1bd95c
3c403f2e
3c201459
3c7921a4
bc8c5d7c
bc7bfdaa
3c52e5c1
3cac565f
bbdc9a1b
3ac7075d
bc0ba357
3c8e06c7
3c1f7ff5
3ccbab65
3c825b9f
3c8ceb41
3ca9bc6d
3c45a0e0
3baba71a
3c9a52c8
3c91925e
bc81d90b
3caab192
3c95b815
bc47f206
3a771b3b
3bb075e1
bc989e7c
3ca57941
3c3703ad
bc0cec26
3cc22818
bc854916
bca55551
bc262de3
bc298d51
3c6475b3
3bf0ccd4
3b43b5d5
bb7e88b2
bc6efa30
bc952d78
3c0f706d
3b230ed2
bbea1fef
3c8cf20a
ba60b4ea
bb4ce34c
3c44728a
3bda3b08
3b0b9df2
3c75ecf5
bbbdc6c2
bb9ef4c7
3c7b1a85
bc173e93
bc9da67b
3aa0be7c
3c5a4d47
bb6734cf
baaf1ef8
bc527491
bc9c67d3
3bc45d6a
3c811ad4
3c598889
bc913cd3
3b86259a
bc4bc2d5
bc8fc1c0
3c5fe10d
3b4833a9
3c77a9e9
3ca156f5
3b0a6932
bc18eca0
bc311b62
3ba7e15d
bc522e8a
3ca28a05
bcc1c158
3c80e919
3c921045
bc725b09
3c18ea40
bc4506ec
bb93f727
bc4ee6bb
3c005d28
3c42625b
bb59d988
3b3296ec
bc13f671
bc5f960d
bc034b34
bb5f6cc0
3c732fbe
bbc9e345
3c7f52f4
3c9768e4
3cbe84b6
3c0e7ce6
bc0f9398
baf02cf1
3c6e103b
3c8f3288
3c0d4f1e
395d8817
ba85f827
3c053ed6
bb252888
3c994165
3b84c084
3ca10c12
bbf95331
3c935fe0
3a99a5d9
bc52d835
3c49e55c
bc6706e2
bc17429d
3c083320
bc4ad8d2
3858d874
bc11d491
bb81375e
3c935a3a
3c617ace
3ca90a62
3c8e1f17
3bc49ab1
3c8249d5
babb6786
3b9a9603
3aad8499
bc806b4b
3cc49a91
3c8cc9cb
bb39b9fa
bc859198
3c77e662
bc8e75a6
bc59e949
3b02625f
bc174183
bac81e3c
bbfe7b8c
3c2a1199
3cc59b31
3c5490b9
bae295b7
3c8a0559
3c13f68b
bc85d146
bc6ba809
3c426416
3bb711d0
bbbae4e3
3aca5387
bca72700
3a809df5
b9e2d6c7
bc276677
bc59af74
bc80ec05
bc612dc7
3b1198b3
3c050535
3c93357d
3cbbbadd
bc630b04
bbbf1df6
3c526d84
3c0a766b
3a18f1ff
bbcc323b
bbf99748
3c16a487
3c4d63f6
bc669b9c
3c040689
bb1fe4c8
bc19fb7c
bc1e598d
ba8b750b
bc250fbe
ba57b2fc
bc50b128
3c04a1e5
bc8f24a0
3c962cd2
bc8ac508
bc91490e
3ba71a58
bb7570ca
bc9c697a
3c97d084
bc6b48c3
3c8defdd
bb93d8c5
bca6b4ac
bc83526d
bc76bdcc
ba94b10e
3c345c8f
3c5e1095
bc99caed
3c26fd04
3ca40eb7
bc10e2b4
3c19a8f2
3caf8754
bab093a0
bc18470f
bb973c1c
3cb6c32b
bc991e39
3b7db0db
bc439186
bc5382c4
bbf3b605
bc3a8c4e
3be17db8
ba0608f7
3c8bee1a
3c92fbdc
3c792f37
3c2d854d
3c0bdb6f
baa98926
bbf5cdd6
bc87b907
3c1fe555
bb865216
bc9a6047
3b8527e8
bc3569d0
bbab3fbf
3ad2d264
391b9abf
3b5ec53f
3c1ba1f4
bc8bb741
bca0fcef
bb8eaf52
3c3ba492
bcca3d10
3bc2f738
bbcace49
bc53ab98
3c902a14
bcc31002
bc4119f0
3c50cff7
3c96a8d1
3bb963ad
3c9dca23
bbf57a49
3c1f1e00
3ad5ba31
bb58f13b
3b121339
bc518f6f
b90c481a
bc530a14
3c85b885
3c35e067
bbe58e11
3acba6b2
3b4c3755
3bf2de6b
3be99b15
bbdb5bed
3bd3e56c
bc4d798f
bad5685a
3b15249d
bc7b18f5
bc92f77e
bbd2e80b
3c648d89
3b1efd6d
bcc719ff
bc22462c
3c2313d2
3c46d2b5
bb5d7ca6
3b1bcd55
3c06728a
3c17f88f
bc8e8291
bcb832d3
bbab3b11
bbd5412e
bc1f984f
3caa47b2
3c863e3b
3c05d9e6
3c7c71c8
bc7e377a
bc881052
3b4ffcdc
38ec50c3
3c35b541
bc3de666
bca5ed2c
3c97472d
bbeca1bf
3ca0483d
3bba33c5
3c9e4572
3c86a9b2
bbda0e72
bb9ca6f3
bc110ec9
bbf48963
3bc32c65
3c8d4765
bc608b8e
3b5c0f4f
3b69a644
bc08371d
bc5acac7
ba8f95bd
3c6b5d53
bac6b201
bca4bc64
3c02429a
3c41ea64
bbd3f770
b948c95d
39e7f366
3c642923
bc15e1b9
bc343a08
3c738efd
bca993e3
3c84bd2c
3c8554c7
bb8f07c5
3cadb758
bc453db8
bbfb1f1b
3c8e2826
bcad6d78
bc8460bd
bb3fbb8a
bbed4f1f
bc6c0f46
3c4106d7
3b94582b
3c03b7e5
3c6298ad
bc722614
bb3f3597
bc02a583
bca2a915
bbd4d520
bc226490
3c04756f
bca9b49d
bc17f4cd
3c419935
3c8c2e42
3a64130f
3bbf3c3e
3ca92125
bc013f26
bc94c6ce
b9bf93b2
bb352a84
bbd92bc2
3c8b320a
3ba68bb9
3bad2c40
bb8cb81b
3cc13524
bc8916bc
3b47fa22
bc40df70
bc97b9f4
3c87ac05
3c581c59
bb4bd341
3c533b52
3b6b76fa
3b26fca6
3c8ac1e4
bc8bf9e3
3c8b21c7
3c2d8f77
bc54c665
3c92b375
3c8bad9f
3c58e97c
bc602243
b9829263
bc7a21bf
3b89a9b3
3be288ae
3bde5b53
bc8580f7
3c9b1fd2
3cad475b
bc248ba6
bcb2b791
3a842fbf
3c99aec6
3c864777
3c431377
3c82d297
3b80d073
3bfd7410
bc613ee6
bb4edab3
3bcbb051
3bef32b9
bc75b45a
bb85091f
396eee3d
bc3e5234
bb6f1101
bc67d31e
3c4ae6e4
3ba764fc
3bd4b188
3c0bc9a8
bc5921c5
3c80d45c
bbff52a2
3be55515
bcb7e404
3c07b98e
bab6d3b4
bb2cbfcd
bcbee04e
3af54259
bc92fe79
bc9fcfab
3bb0a911
3a8908f5
bbeb05ea
bc61c438
bb8728fa
3c5b8acd
3ba3e3e8
bc8b2c4e
bb8b8788
3c9fe24f
3c0417c7
3c2fd722
ba61c43c
bad0275b
bc217cec
bc8b305d
3bc480ac
3ba45eb8
3cacc7e6
bc95288b
bc363b3c
bb4be27d
bb8fc4e9
3b0f2da7
3ba113b0
3b2d0140
bbdbcfd9
bc4d4df3
ba7f6d11
bc9b6aac
3ae1d5c8
bbfd45a8
bb86413e
bb9af09e
bc5874ab
3ab13c79
3c3a661c
bc08967d
bcbc3f05
39de5b7c
bc56b22a
bc378d60
3ba019cd
3c4c43d3
bc492de6
3c7b8a39
3a90aabb
bbdc04d7
bb9319bf
bb0c333b
bc31afdd
3ca6035f
bc9cea10
bb848499
bbd97a22
3be6d82f
bbe19225
3b115828
3c9993b7
bcb18565
bc77cda0
3a42d97b
3c85040b
bc6a8168
3c897eee
ba648344
bc26917a
3b68d13f
b987f716
bc5ff2ef
3c9653d9
3c7856bb
bc2a4156
bc6210a9
3b5c42d9
3bbb5430
3bca022f
3bded96c
bbf3d244
bb35526e
bc40210e
bb35c0db
3be0fab9
bc43482a
bc81e34c
3bc4eb68
bc94c62a
bc63e0c5
3c1e364b
bba07ed5
3c9fac3b
bb3c4ea1
bb25a240
3ba53693
3a22c943
ba0d8fcb
3b545bfc
bca2d8d6
3bff384f
3bedfaeb
3c909d21
3b4a3d62
bc0b1059
3bc3c047
3b0ea58f
3caecdd6
3bebae6b
3bf026aa
3b0ea79b
3ca6132d
bb733959
bc1597f0
bc11dfd8
bc60f138
bc3bc76f
39b534de
3c10092b
3cb5b4ce
bc62eb23
3afc6b4b
3be07423
bc51d745
bc110a2c
bc1efcb1
ba3f6f52
bc87d43e
bb1072a1
bc6577d4
bcaa727f
3c4ff5ff
3ca43d2b
bc408082
3b8d14d1
3bae0769
bc9bfdaf
bc7669c3
3bbbd2a3
bc910010
bc88beda
3c0a922a
3b873b5b
3b481685
bc996ead
bba3f9ab
3c9de3ad
bab0f70c
3c359e75
bbac403a
3bab5a3d
3c911385
3c384577
bc10b1ad
bc23a53e
ba6debce
3c97abbb
bc6d6dc1
3cafaa07
398b75c8
3c285a8a
3c56266e
bc665e9e
3c26e8a7
bbd3251a
3c05647f
bb862447
3cbb0b66
3c18dda2
bb4e1c29
3b7490a9
bc960ede
3b62bf5f
3c8b33ab
bca4b896
bc084cb1
b9daf469
bc03866b
3c2267f2
b9f77de2
3a76cbfa
39f49989
bb4e2597
b9b849cd
bcb744c5
bc0dc6d6
bc19e490
bbe9a36e
bbfd3369
bc8235d0
bb82434b
bc2d19db
bc426fc2
ba1eacdc
bb863482
3b4bbc4e
3b9a6ae1
3caddb54
3c528ec1
bcb152d5
3cab2e0a
bc9549b6
3c267031
3bf9e11a
3c07689b
bbd781b8
bbbfaaf3
bb3a119a
bcb96be2
3c35c737
3bc334c6
bbad2e73
bbf04c32
bc9c68d3
bb91d2e8
bc60e283
3b0332c3
bc56230a
bc1c5f95
bc7ecaf5
bc960177
3c859f77
bc1b1c1d
bc377af6
3c874e11
3c46c6aa
3b93dfcd
bc02b8fa
bc4fe06d
3c250443
3c6368dd
bc804b19
3c48ff2b
bc90ffa6
3b87dae9
bca9fab1
bc424889
3c6d2e5a
bb8a1899
bc21f37d
bc9ebe7b
bb37636f
3bcde627
3c3ea16c
3c24e7fa
3cac7693
3c97b291
bc59bceb
bbf1cfc4
ba8f14d3
3b71accd
3c6a3fab
3c3d701d
bbcd3fa0
3c2c8446
bc5274af
3b8adf24
bc145f7e
3bb8cca7
3ac7c040
bc349df0
3c947d07
3c959dcf
3c0eedba
bc0693cf
3c4a7fdf
3c4018a2
bc32da28
bbad8386
bc399ceb
bbaa5ba5
bc7c074b
3c7cd6de
bc8b04a3
3c790c02
3c92d608
bca8e23d
bc986a31
b972d894
3bad0c8d
3bb37689
bc776d2c
bca8c72e
3c630ee8
bbff7bb4
ba1b8d65
bb095ee4
bc6268d2
bc08e6de
bbad6c3b
3c87ade7
3c834bc1
3c8e624a
3c499ef1
bc98f7a5
3c3fecc2
3caa856d
3bb9c7c2
bbbe2ce6
3cc1a06c
3c9a8b5c
bc6fdb19
bc04dfab
bc337373
bac31b84
bc15779c
3cb7adda
3c40a580
3ada8f58
3bf8617d
bac2cc0f
3cc8c1bf
bb8d955b
bbfc922a
bc7dc641
3ba31c1c
3c97851e
3cc36cd1
3b166228
bc2b4ab3
3c037e95
bb928d3a
bc900b3e
ba54e610
3c89f7d7
3c986e65
bc2a1f06
bca21cb7
bba335ad
bbb57330
3c609c90
bb3574f1
3a55776b
3c1d9f1b
3bb1c8c3
3c850ce1
3c22ce89
bbdc3151
3bba0e05
3c04e973
3c843d7c
3c95f9c7
3ac868ba
3c87c11c
bc6e6ea0
3c158813
bc9f6c2d
bb87e98c
bca8f528
bc9e9fa9
bc4f2def
3c96c404
3c875006
3c9f2585
bb20ecec
3c2dac6f
3c711535
ba0de9b8
3c481043
3884f59e
3c8535d0
3c90ace8
3c0f05f5
3a9d1445
bc1660b1
3c91546b
bb66ecda
bc7c9267
3af881dc
bb77d922
3c26dd4f
3c898f5a
bc1ae95a
bc14626e
3bd3acac
bc9b1c65
bca3f969
3befcfbe
3b0c5d60
bca24587
3c22ecd1
3c4e5d4d
3bef1cac
3bcfd9bb
36c9ff68
bc8d8336
3c8fb9fb
3848117c
3b4c295b
3c0a3d97
bab8bfad
3c04fe3a
3c929e8b
3b89a9fc
3c431815
3ccfc5b8
bbcc8984
3b8e5698
3c310c9c
bc94fd03
3c3a5ba6
3bf2aae3
3c8883cf
3c1c6c96
3c40654f
bad242bf
bcc0728d
3ca4360d
3c471ec3
3c112a92
bc7ed56f
bbf20aea
3bb1c2ca
bab5f092
3c52e6ac
bc9ffd97
bb61d584
bb7b0038
3c84c7b3
3cb60450
3b968150
3b04276d
bc16baf2
bcbe5c28
3c0dfa1d
3bb8ad32
bc83c0e3
bc236605
bc85a905
3ba2e333
3c145853
3c97f698
bbdeafb4
bbd6d10a
3c4e4650
3bd9501b
3c0759d3
3cc7d781
3b536b03
bca2e681
3c63b282
bc1c3243
bc8ee1e1
bbe83fd4
3c821e79
3bd9875f
bba30aad
bc52a71b
bc885d57
bbf9e635
3c81e144
bca537e0
3cc5c3a0
bb5e1d82
bc26ba10
bafc2521
ba57adf4
bc7dd284
3b0b8aec
3abe266c
3c945ba7
3c824baa
bca2134c
3c3548e0
bc3aef87
bbb98aea
bb0e52d0
baefa116
3ca52477
3b8a577f
bc6cded7
3c62278f
bbb231d4
bbf1cfe2
3b0a965c
bc537b2e
bb58e53d
bc8636c1
bc385428
baa2366e
bc6167b1
3b95281f
bb41fd77
bbd277f4
bbf7ffb2
3c848c30
3bf82d77
3ca7a5fa
bbd85fd3
3c810325
bca3fad3
3cc399d8
3c91e55c
bcb0f65b
3c9abda3
3ab83d49
bc5575a7
bc8d0911
bc4ae07b
bc842197
3b84bd9d
3c3b6ace
3c980aa9
bc85ef5f
bc87284d
3c4e36e2
3aed78c7
3c8eec2d
bc95c069
373d9521
3c5f7c22
39e6107c
bc3f5377
3c9e25c5
3c767117
bbb347cb
bc334bae
bc0b4992
3adf636c
bb1b1bc7
bc805453
3a9abd39
3c044bda
bc047539
bb324c36
bc37e4db
3bf43b03
3c12f404
3bf317da
bbafb608
3c61c20e
bc6d3623
3b845a81
3b230d07
3c9d9a50
bab8f3c1
bc0ca64d
3c04a883
bc145416
3c5f9ecd
39c8791a
babdf225
3be9fdcf
bbb66b12
bba49d50
3bc268f7
3add9f7a
bc8e965b
3ca51a36
bc67ed50
3c024761
3bd7ca64
bbe70415
bcb62185
3c9cea72
bbc215da
bc84a3a1
3ca0cb7f
bc807a05
3a94e487
3c94b5dd
bc3b9d14
3be72c59
bb2aa67f
3ca0873f
3c3596b8
3c62ffdb
bc9959e2
bca6d8be
3c360264
3a4eabc2
bcd46872
3c918248
bb930642
3bf01b1b
bc17a99f
bc994c76
bccea5b4
3aeaf8c3
3b36df43
bb18043b
bc2811df
bba44edb
bc964d7b
bb872611
3ba2c769
3c05a591
3b205d94
bca92803
bc8c75ef
3b9e1781
3acb2ad0
3bd40493
3cd25524
3c605b53
bcacc077
bc4ff7df
bcb5bfbb
bcb8f930
3c1d54cb
bcb9012d
bbb330b5
bba6812d
bab6e58d
3c3ba08f
3c6c5a72
bb459133
3bd896d4
bb5d7284
3b947f42
bcb8309a
3c9d9c43
bca21a1b
3ab10ae1
3bb8c311
3c34f11a
bc20da32
bc2cd72e
3c4513d2
bc3c034e
bb627830
3be7f611
bb6c9294
3c980b1d
bc8d8024
bccf31d3
3cb734d2
3c3aa020
bb421bc0
3bb572bc
3c88279a
bc195c77
3ba389c6
bc664e35
bc84bbf1
3b342416
bb9002c4
bca51bbb
3c02be28
3c2ecc32
3c11776b
3ca11a6c
3c8fd5fe
3c8972a7
bc5cb61f
39eb09ac
bc0cc6fa
baaf498d
bc2ca0f1
3c125a5b
bc30500b
bcab4a91
3c8f48fc
bbb21c50
3bef2c0c
bc82ea25
3bf1cc7d
3c8c20fb
3ba36ea3
3ad3ddb8
3c969df9
bc05758d
bc1d94ed
3af80c52
3be0fb98
3c87740b
bc08ba10
bb4bff32
bbbc1ab6
bb56c683
3a9466c4
bbc7f026
3c408f2c
bc826d1a
3c72f9a6
ba6aecc0
3c741f2f
3a912ecd
3b015aa7
bc9c92b9
3c1419c7
39bd5b6b
bc55b5a5
3a8d78a4
bae78919
bb063358
3b41f877
bc1dd7bc
3b17c9e5
3c1f7801
3c5fe75a
3c7eb3ad
bbb97336
3b526ae0
3bc9a3a9
3be3f4d2
bb3b8ec8
3bacca25
3b141649
3c4d6336
bb81639c
bc0333e5
3b3ad9f1
bcb73e28
bc58edb6
bbaccade
3c6920fa
3bd7aa23
3b8310ec
3c9b8063
3c83937a
bc248e57
bc7a4924
3bfb16c0
bc84085b
bafe9649
3c2fabce
bbc15dc5
3bd02762
bb1f17e2
bc83986d
3bc5003c
3caf5fb6
3caa25e7
3c1ddb86
3c8e3f0c
3bd3ffc9
bc78e047
bc1ce2ed
bc93b9ae
bcbe5d7e
bba159c0
bac511dc
bb292887
3b5b27d1
3c16db01
bb15c7ed
bc472a1a
bc8927ab
38841ede
bc77e11a
3c711a5b
3c41c5c4
3a866a70
bc4ba1bf
3c80d429
bbf80869
bcbe8f2f
3c61bf6e
3ccea1ae
3c896014
bbb51b5c
bc73c12d
3c74fa07
bc6c7abb
ba9e8624
bc479bb0
bc3a915a
bc62baca
bbb48837
3b432ae7
3bc584fa
bb32237e
ba381f1e
3ca07442
bbefd44e
bc28f85d
3a9183e5
bcacafa1
bc930a5a
bb9bc056
3c560c6a
bc3d39ff
3c9c18ee
3c6c4a1b
3bbcf61e
3b73d29c
bca4aa61
bcbe4b45
3c963b12
3c615139
bc89160f
ba8e406c
bb9dc8d1
bcc21d2d
3bc6f9c0
3aeeb1cf
bc220766
3b46f333
bc1e6106
bcb1c6bd
3a4c0c88
bc8e8c4a
bba0f1d5
3b91a695
bc6a5717
3b6e91e6
3c44a991
bcc1b6da
bc7c9e34
3b5f9870
bb1ebc32
bc660436
3c134aa1
bae141a4
bcc5cf14
3c2e0316
bc71d55e
bca9885a
3c97eff6
3b8fc2ec
ba4d0c04
3c0a7b5a
bc57b4a8
3c6ad6d6
bc79eb19
3c6d2795
3bf8191b
3b936124
3c642bd5
3bec5377
3c15e14f
3bf6e684
388d236a
bc3eea92
bc4a81a4
3bb464db
bc86a959
3c6f9022
bc7333f1
3c96dbfb
3c99ff5d
3c43e31e
3c05fc72
bc1357db
bc6cea5d
3cc2d167
3bda0ad0
3c4cc367
bbffe8cc
3ab31b90
3c1f3b98
3ca1ca11
3c642546
bc679018
ba136e6e
3c7e27dd
bca814ac
3c10a991
bcaab7ae
bc765316
bc255c1c
3c2fe3c5
3b8757d2
bc54bea0
bc9fa178
bcc18015
bb99acbc
bbd63ce5
bbe5befb
bc141a0f
bc03973a
3b807bb3
bc8fe89d
3c6c8527
3bf344ed
bbc5ecee
3c4de0fb
bb6adaea
3b369a01
bb8da873
bc4d36cc
3c107a5e
bb67c32a
bc8dc045
bc36b5fc
3b29b973
bcacc21f
3cbc17d4
3bc91471
bc3c0aa9
bbfa0539
bc47e407
bc2aefe3
3aebf79c
bca82a76
bc672149
ba95c411
3c926abe
bbe3e5fd
3b30a3bf
bb9c6fb6
bc55da62
bc1701b8
bc436356
bca2fa5b
bbd53ece
3c7672d1
3c7aa688
3c10a2ed
babb9aa9
bca66ae7
bba2247c
3b86274a
3c044fa4
3c8f1de1
3c8b06b8
3bc035cc
bbcb21e3
3c2ea4cb
bc72b97b
bac936fc
bb06d911
ba976265
3c7ac411
bcae29db
3c5df8e9
3c9b866c
bcaaf92d
3c95db88
3c500b85
bc713437
bc508dbf
3c517e5b
3c8d8dbd
bbd58e67
3c576fe4
3c767ce5
3c17bbb9
3c855c9c
3889fe1b
b83cbe62
3cb0f040
bc8c42f1
bc154d42
39bdebb3
3c257eb4
3c00dd1e
bb9ecddd
3be6d50e
bbc3f893
3c3b6336
bbd5c02a
3be1f8c3
bb07523c
3c025133
bc9b962b
bc000950
bcbd3d06
bc473fdc
bbaa707b
bc91178d
3c133f0e
3bf09029
3c7c3708
bc52fe66
bc45e582
bcb15419
bcafd75e
bbe3ae7b
bc75b503
3a31ac2c
3b8bcba4
bcb9d674
bc842458
bb111799
3b12781b
bb87bb49
3a307efd
bc309463
3bc3169c
3ca432c6
bb72d579
bcba8a86
3c37a24f
3c1e9f52
3c4b63ad
3c3e3a23
baed79f4
3c8364c2
3ba0ba40
3c2cb88d
bc0def18
3b8ab272
3ba7b937
3c18bdf7
bc38c7a7
bcbd9f95
3c51030f
bb787f69
bc6a11a1
bc60c470
bbc7862f
3c803ae7
bccab1e6
bc2509a6
38a14560
3c0e0406
3c385516
3c85853f
3c53d81c
3b99adf6
bca47d88
3c47ae26
bc26359d
bc974f98
3966c58b
bbf2b5c2
bc844e43
3c56b3c1
b99b87b0
3c20ae3b
399afac3
3caaedf4
3c908b3d
bbae20d6
3cc470d3
3c1f9072
bc3b9596
bc731837
bc42f541
bccc5399
3c0197d0
bbac7ded
3c166ed3
bc085918
3bf5f5b7
3b16a2c9
bc7b4a00
bc845530
3c7cb273
3cb097de
bbbed7d7
3c711767
3c6711a8
3c2d6f3b
3c0f99d6
bc82aeab
bc0e62a5
bc29945c
bbb92e2c
3c2c59f0
3bb43155
3c1f5e33
bc842c21
3bc28025
3b79d6c6
bc6a4a17
3c83ebab
3cab0873
3c6a6619
bc04bfdf
bc1af4f4
bca713b4
3c88d6cb
bb484565
bc5d037f
ba36ec18
3cbb74df
3bedabd7
3b1026c3
3ca87d84
3bec077f
bb6f1356
3c5c1ae6
3bd52b38
bbd23d85
3c004178
3c54b92e
bc96abe3
bc75e85d
bcb9e9ac
3c2879ea
3c238bea
bcb59d56
bc9c0ee3
3c82c27e
3c9a232a
bc260c72
3afd48c1
bc93dd47
3b7d61da
3cacd12f
3c61a114
bca14be2
3c9b2573
bc6fa8e4
3bbe9529
3c01a251
bc2f41fc
3c8af189
3cc07553
bc0b15e3
3b100ca8
3caffac8
3c3033bd
b986f5ed
3c93fd16
bc09956d
3bcb2228
bbd0f272
bc2baba4
3c042a6b
3cbc4752
bc41d0c2
bc915e27
3cac00b7
bb94ec2b
3bfce756
bc0db0dc
bc0fcb4c
bc976362
bc2c493c
3c192269
bc7e0804
3cd1c52b
3b5396eb
baa42f64
3b49557d
bba35633
bca525cd
3c7b21ef
3b9043b8
bca67400
3cdafcc6
3c9066ed
3c32738c
3cdba5be
bb84331e
bc3e8f37
3c6bc77a
3c6ec735
3c244572
3af384ae
bc6d25ca
bc4f018d
3c17343c
3c8f0ef3
bc1a7bf4
3bf0f961
bc5741fd
bc8b83e1
3b833801
bcaf44cf
bcb4bbc1
3a9bcd7b
bc0f8322
bc33d298
3c5cbbd5
bb804cb7
3c7b2a94
3ccf90f7
3c3173a0
bc45fca6
3c25e138
3b4fdd2f
bc9cfb1f
3cb35d1e
3c850a9c
bbd54cdd
bb99f11a
baafcb2c
3b4c82bb
bc72b267
bb4bb582
bc7f21f2
3c81ceb3
ba94f47f
3beb1e9c
bbd7327b
3b6be491
bc2fb8cb
3c6ab6da
bbbf0dd0
bc7fc844
3b323d54
bcb4a319
3c242c8c
bc69d2ae
3c737ff3
bb7b2b9f
3c186a61
bc7253f0
bc697f71
3cbaa778
bb40cd50
3c458d05
3cabde52
bc6e8837
3bb33cec
3c8480f3
3c6942c6
3c380c6e
bb32a4cc
bb9d7d45
bcb3c7ae
bc7e5460
bcb11393
3c51f9e9
3c920705
3c4687a8
3c770036
bc3edf14
bca5ff90
bc726378
bc1fdb7e
3bd63100
bc9146ed
bb0aac79
3c5129cb
bc8af76b
3c26bdec
baa1ddf2
3c405bbd
3c89b111
3c075bb6
bcbb3a6b
3c7b7212
bcafd72f
bc5f364f
bc8b7422
bc769474
bba826fb
3c1e22fc
3c72859c
bbf51be3
bc286555
3b9902a8
3becac62
3c9a2133
b78b403b
bcc767ec
bc7fff58
3c47a6c8
3c84310e
3c9779bc
bba8399d
bcbd1968
bc6fbc3d
3af54465
3c947498
3c5c5bf9
3c749d3b
bcbb9e19
3cbcccf0
bb222fde
3c4c08a9
3b8d20d4
3c25f038
3c20349c
b9cf75f4
badb321e
bbdf2ad5
bc9110d0
3c3273f9
bb8e3d72
3b895e6c
bc997611
bc58b44c
3c258e32
3c97976e
3c8fb74b
3c783d3b
3be156f5
3c1855c5
3caa85a2
bbfeb0a0
3a9cae77
3c1d49ae
3c35f0d3
3bb5697d
3c94fdd1
3c811a9a
3c3522e2
3c93a6a5
bbb01235
3c5d4435
3cc6aa3a
3c30b792
bb9254e6
bb70eb47
3bc2e284
bc138858
bc753eaf
bca4cd4d
bc659ba2
3b585d4f
bb06aced
3a0412fd
bc881f65
3bbbcc7f
bb6b8233
3c9f7d01
bc9f19f2
bb711444
3c4b9090
bc3c2766
bc495353
3cbee607
3c510ba2
3bd71e3d
3cc93007
bbb2401b
bba2a36c
3cbb40e5
3c0452c7
3c651fc3
3c9b5d9a
3c327124
3c8e9790
3c936976
3c49521f
bbf840de
3c9a70c6
bca94995
bc6b6658
3c817f29
bbfc82db
bcb94ea4
3add7a33
3c96e9d3
3c7cad88
3ba3c5eb
bc8491ca
bbe38c66
bc4e5def
bc8691a5
3c2ddf8d
bc3fb01f
3c4ef08b
bcbd566f
3cc4410e
3c62aaaa
bcd4919e
3bc166bf
3b3aee60
3c3c5cee
bc39a4bf
3c4670cd
bbce1984
bc493ae8
bc603a40
3b9a3fc7
bbde3105
3b9cec6c
3c0ed543
3c0a6b89
bc90c063
bc0c1ba5
bb604181
3c1c9dc1
bc6d172a
3cbb11ec
3c6e3255
bcc01aa0
3cb6eb4f
bc76577b
391a1207
bbd9ee1d
3c454b0e
3aafbefe
bb751b4b
bc77f193
bb823ac5
3c8e7767
3b454abc
bbb541c3
bb5b001b
bcaeb39c
bc42f4cc
3c93365d
3bc1bf4c
3c5a453b
bb15578d
3c72131b
3a8723ff
bc6926cf
bc7b49dc
3c649773
3cbc612d
bc9d7587
bbeb001a
ba4148c6
3c849593
bc841674
bb5eb528
3c3bb185
3b8afa8e
3c213843
3c81f366
bc4d79ad
3af3f1aa
3c20f300
3bb5ac70
bb1512e6
3c11cf3e
3bf5e2ce
bc0d3cf3
bc3dbd21
3c253425
3c731594
bb75ebef
3b32de82
bc6cbdc8
3c080d98
bc8b2920
bc41d499
bbf75a36
bc601f4a
3c587d59
3c01de3a
3b7ead45
bc0729f5
3c0b972f
bcb2c1dc
bc7ee23e
3bd118d3
b79627f5
bbd2724b
3c0dcf48
b9868370
3b5e5865
3ba9b1c4
bc060f64
3c43b6e1
3c88c66b
3c938ae7
3cae3f49
bcb59456
3c4ae55f
bc61da85
bbfacc6b
bb196ae4
bb98998e
bbcd2ca8
bbdb05b7
3b206b6c
bad2f47c
3b5337f2
3cbf4d4e
bb4f9a5d
3b542d18
bc156a8f
3c57a578
3c36f52d
bc3457e5
babdaf09
3c8ea227
3bcc4f10
bc5dede5
bcb22e14
bc1a485c
3c13d8f3
bb65fd1b
3c3ea29b
bb017c4e
3bfaaaca
3c9f7ccc
3c608c6e
bc3cf79b
bbbe2287
3bee65cf
bc89ff22
3c5ef75f
bba7f94e
babe5c02
3c849673
bb1d00ed
3ba2d137
3cb594d9
bc733146
bc4ae91d
bb26be8e
3c7f0918
3c553ce9
bba5abe3
bc1e2160
3ba8a283
39524b00
ba979840
bb8666e2
3c9c8191
3bd2e5be
bca475bb
3bd0a1b0
3c92e2ed
bc034d12
3c9b51f6
3c601192
3c633a58
3a0d6ad1
ba19977c
bc8acd50
bb051a46
3c5c0fae
bb470e99
3c9183e5
bb25da92
bca0f46f
3c2d3b94
bb53ec55
3c61d91f
baea33c4
3b67074f
bc048587
3ce11149
ba2b08c7
3c6aa23c
bc449c99
bc3c284a
bcb23089
bb23c462
3c9bf7dc
bbe9877a
3c86abe6
3c631d9d
bc9d5fbb
bc77f7aa
bad7ace9
bc1dc4ee
3cab6c0e
3c4a459a
bbce4b0b
3c4f9719
bc3d136a
bc4c696c
3b74c126
bbee560e
bc16f52f
bc39b737
bb84f9a0
3c66fcf7
bc260c3e
3c71deae
bc759947
bbf7dbbc
bc2c1937
3c76af55
39ff8279
bc0c4a43
bc1ea092
3cb4ca8b
3bf42fdd
3b11a6c6
3cbd5778
3c225272
bc90c9cb
3c26c285
3ab75eda
3c5f34a6
bc1b4489
bbe09b83
ba34c352
3c9eac71
3c802e72
3c34b29c
bc360548
bb07c5cb
bc5e9684
3be7324f
bc6150ef
3c2bed76
3cb80657
bb9611e3
3c4f19b6
3c2fc458
bcb6e206
bbfe6e2b
3bf0abb5
3c7701be
3c21650b
bbf8ff34
3c816e07
bc2f5f8d
3c9ca7d9
bc875bc3
bc2f04e5
3ca69506
3c5be3d4
ba54aa00
bc24a48f
bcbefdaa
bbbf95dc
bbbbcd2d
bc94242e
bb966e10
bb732d92
bc71269a
3a648cff
3c5914d4
bc4b90d6
3c1c0538
bc3ff9a5
3bd6b90a
3c878985
3bc9e465
3b08a766
3b8d0697
bc3eb787
3b8cb89a
bc386a46
bbadfe5e
3b41ee66
bc334d15
bc4d420d
bc73b17f
3b8b1609
3c604470
bbf93434
3c715671
bc65efbf
3c13dc1b
bc08704e
bc8c7d97
3b9e229c
bb7573f5
3c5b92ca
bca38f41
3bc4f4e3
bc189f61
bab54bc1
bc9221ac
3c0f5ce6
3ba3caa2
bbb9a675
3bb7067a
3c017f81
bb37d4ff
3c910cf3
bbc11ce9
3b5ffb42
3bbd48d0
3c112f07
3a485453
bc51b363
3c82e30b
3c020cea
3b3f5b01
bc143711
bc93ce6f
3c56b33c
bc4fc4df
3c1d20e9
bc8f7848
bc8646ae
3c90d564
bb64dc9b
3c17b10d
bbe459a0
bc45ab95
bcb40348
3c4af866
bc07fa2e
bc4dc74e
3c800e5d
3c1cbc30
bc0ca01d
bae59c40
3c2a98f4
3c5c54aa
bb8f277f
3ca614d7
3c551cbe
3c3c4574
bc7933e2
bb4fc4e4
bc6cb5c2
bc1b6f04
3baaeaea
bc548c6c
ba576908
bca5c3d8
bcaa8690
3bc6b998
3c3211df
3b4b9800
bb9a0578
3c8445ce
bc6e0db2
bb4ea8da
bc584266
ba4ac1c1
3c7efec9
3c590c41
3c7ad027
bb5aef29
3c8f8741
bcb83262
bc4d8942
bc563108
3c654992
3c8815fe
3be8ece3
3c3c12ae
3a86ebfe
bc7b1fe6
3be7a22a
bc6701e1
3bc0e5a1
b81c7292
bc4023dc
bc935a39
bc156144
3b25347a
3c1f6ed7
bc50672b
3c34db90
3b978447
3c723e66
3b3f2943
3c801b2f
3b8c7c0d
3cabbbcb
3b4c5497
3b7ba209
3c54d24d
bbf80dc3
bb213664
3caaa3f3
3ba1ada0
3c55fb4c
bc00e288
3bdcfae5
bc9ebd22
3c7c9893
bcb5fc97
bbd01f93
3c931f0f
bc97e248
bbfd5081
3cbbe0c0
bb802cc9
bcb9e5e1
bad34526
bbe12079
bb01f403
bc2cbd59
3bfbb4ed
bc83dd85
3c083b60
3c97151d
bc5d22b2
3c8040dd
3c96689f
bb93b1b4
3c20af4e
bb2e56e2
bccc2cd6
3c6a5952
3c822a53
3c6dbaa3
bbf43dd3
3c37b5b4
3b6c8ca4
bab8d10f
3c9cbf32
bb2619c9
bc12c6e3
bbfe0a52
bcaf6216
3c97d73c
bc9ee4f9
bc985b67
bc38a06b
bc8a63a7
bc65161b
badcab2b
ba479759
3c2455b6
3bbe7d98
bc8da5fe
3c2675f3
3bc749e3
bbf270f4
3c489cbf
3c4757e0
bc2f2635
bcc33ec1
ba1ad32b
bb730f70
bc6520d3
bc3a39cc
bb3406d4
bca0e79d
bb885d49
bc34883c
bc58f300
3c830264
3c5230ee
3b84ae4e
3c05c9e8
bb005d48
bb89d510
3c51ca6a
3c60599c
bb795505
bbbdfa50
3c88a43d
bc80cca9
3ccbce4b
bc6c874c
bcabe8b8
3c9b8f7c
3c707ed1
3c2d4d6d
3cc13a1e
bc676454
bc4095da
3c886d50
37c521de
bc64e27e
bc895a00
3c163b77
bc80aef7
39226568
bca1723d
3ab6d412
bbd8cc2c
bb312015
3c86dae3
bafeb7f9
bb5d8767
bc992189
bc00d9a9
baad095a
bbaea9ea
bc8f301d
bc7b570f
3bd98028
3bd93b07
3c371d10
3c44ca33
bc1c7681
3c662bf3
3c98d387
3c6b76ed
bc9dc3bf
bca415d2
3c56cb2e
3c61d719
3be3ecda
bbc7fa4d
3c9db589
3c44a151
baac18c5
bc98803b
3a7e7157
ba7a04ad
bc40790b
bb41ec2b
3c08e62d
bc36aef9
bca5c42b
bc3b7601
3c8c7e35
3ba9d7aa
39f77e26
bc8c0126
3c952da7
3c52acc5
bcb71929
bc48022d
3b8ea308
bcb2cff4
bca9e47e
3bdeb0f0
bbe88239
bc18decf
bbad0481
bc5e6440
3be9c68d
bc44da28
3c809a8c
3c5d0530
ba95bb60
3ba3a6c1
ba87658f
3bf6848e
bb91bda2
bc927263
3cb93db4
3a21f668
3c6462fe
3c31f9e7
3bf9ca53
bb99a7c0
3be682c1
bc3fa74e
bc693d44
3bc156ed
bb4946e4
bc93331d
3ad40c87
bc6ba657
bc8aa809
3b6e476d
3b0049fd
3c7130c4
bc0f190e
bc90999c
3a91b82c
3b4268ce
3bd211df
3c83c3ac
3c08eb20
bca9b9ce
390575ee
3bd28d36
bc871fa8
bb35c907
3c7ce961
3b7ac2e5
3b307da1
bb715140
3c6f5aa4
3aa420fe
3c4d78a0
bc16714f
bc3ec659
3a3740b8
3a0da8a0
bc4949b9
bbea063d
bc84e561
3c87172b
3c753caa
3b057b14
3b0ac534
3c16da2f
3c47f08e
3be663b5
3ca6e8c5
3c767651
bbd94410
3b734b1e
bbf2800b
3b70bddd
3c3c76d6
3c1473f2
bb237b56
3cd4ab9b
bbda9e7c
bc979e29
3cb04eea
bc5d1d22
bcb9909e
3c9046bb
3c7fb103
b9daa4af
3a2537e6
bc92a82a
bc931917
3ba7d1f2
ba2b7aa9
bc66cef8
3afc7122
3a4024c9
3c4bb67c
3bf7f224
bb48ddef
3c7a480b
3b7e8f4a
bca34af4
bc2224d0
3c81fe67
3c88f617
bcc072ec
bc2fb593
3c0152d0
3ba42dea
bb9f7ce2
bc9fd86c
3c28c18d
3c9f9de3
bc8ef7a2
bc416bd7
bc23d630
3c6a441a
3c853d87
3c086261
bc2ae2c4
bba1c8f5
3bbd6bf8
3c95d48e
3aa15957
3c8ecc2c
3c057d0c
bcafc9e1
bb9de163
bc461ade
bbf66082
bc4ce8c1
bb71b155
3c66e536
3bb2c260
bb82542e
3c2c0314
bc89c579
bbe8a7df
bc7bf4f0
3ca3abb1
bcb538be
3c3ba52a
3ba884c0
3c819f47
3c0c437c
3b214582
3c86ba36
bc27a56f
3bbfff86
bca10136
bc4c64c9
3b64fc55
bc8b6f9f
b9b18c2a
3bfed8ac
3c25d411
3baa5895
bc20260e
3c841e34
bc27ec91
3c8b5997
3c9865d6
bca3832b
bb9b0a2c
baf21b4c
bcaa04ea
bc218035
3bd27032
bc5e182b
3caa3209
bca79cbc
bc8f3727
bc37e240
3c364ce2
bc7c2d26
3cbf74cf
bc361400
bca044b8
3c07f8ed
3c3a8bfc
bc9ddfcd
b8f77a87
bc13283e
bbc714d0
3c9dad05
3c1c3dee
bc48e5ec
bbc0170d
3c353dc3
3bfc4766
bc85e38b
3c3e637a
bca79863
3a4e36c9
3c7be3e4
3bf862c6
3c56628f
3c371478
3b4e953e
b8936e06
3c3f5e14
3c745bcf
bc0cd17a
3be6025e
3c05cfe5
ba19efde
bca19a95
b9e0c49e
bb9546d1
3c8107ee
bc871301
3b3053d2
bbcd99ad
3b204346
bc734b1c
bc8c9d3d
bca593e0
3c9b13c7
bbf53f23
bcaeca1d
3c83175e
3c0e8066
bb491b1a
3bdad530
3c802b5c
bc2eedc2
bbb7d9e5
bc81da72
bbf9ee9d
bc723556
3bb1cb12
3be89046
bac2c0e3
bc638df4
bbf7647f
3b69886f
bb6c2858
bcd8024a
3b75e17b
3c09d911
bbdede77
3a1306e1
bcc392ca
bcbeef6e
3c67da60
bbe426a6
bbae4038
3baf5c6d
bcc0d143
bac0ac25
3ad94715
b959f1c6
3bcc1fbc
bb49cbb3
bc926b9a
3c228b53
3ca33da0
bc83201e
3b9a7c81
3bb87e1a
3b74cfff
3ba53c0d
bbc79773
3bee1395
3b79b045
3cb8d713
3c263e6e
bc901f77
3c92244a
bc22ec08
3a2e63a3
3b3be26f
bbfe9a60
3c239e39
3c817c53
3b22fcbc
3ba7ed22
3bf1537d
bc1cab65
3ba31f66
bbc82b05
bbdd329a
bbf6c6e0
bc606934
ba92c889
3c0db4a3
3a8d6e82
bcb7c241
bc4e2fdf
3c601a66
bc1da508
bbba5bed
bc1afee8
3a2ead63
bcb51981
3c7f55e6
bc8be8fb
3c5a3bbe
bbcbec8c
3c4aedee
bcbeed03
3c8eed7e
bc4a9eee
3c74df2a
bc11900a
3bcde80d
bbf44ef4
3c24b8ad
bb88fd75
3b19b36c
3b9d8289
bc6c9b17
3bd2c570
bc069111
bc2bf2f3
3c269af8
3c6a2509
3ca67cd6
bc95cc25
3c809894
3c665fb6
b8cc0d8a
3cba5fff
3a96fd2a
bc9b8932
3c50789f
3b99114b
b88e2fd9
bc834459
bc5573f8
b901c147
3ba2c6d7
3c4bec4f
3bdcf060
3be9d6dc
bc01b0ce
3c31ff84
bc8f74e4
3b326098
bcb0b698
ba49ed27
bbc5659d
bb9b1dda
bc3b3c6d
bc8d29aa
bc30941d
3c934ab8
3c02732c
bc9accca
3bef26ee
3c2bb1bd
3b547000
bba802d1
3ca4faad
bb1dbfd5
bb3387be
3b665e07
bc31b9d0
b99cb094
3c81ff7b
3c95382c
bb186c73
3c24e0cb
ba246798
baae9018
bbc8110f
3c723d43
3bf18436
bc50a191
bb384f0d
3c6dee6d
3c7d0a19
bca462a0
bc04d150
3c81d82c
3b2885d7
3cafd8d0
bc8e0edb
3c19aa3d
3bf5b5c9
3c50f0ed
3b230fa0
3c400d44
bcacd68f
ba983809
3bca9d84
bcb2dbfa
bc6c2385
3a84d762
3c5dd284
3c5712b2
bc5d42f0
bb8afc5d
bc9a3fc3
bb41644a
3babd304
3b633686
3cb1ebf5
bcac05a9
3af9e262
3caf14f5
bc8b9393
bcc02c99
bc0520ea
bc3f57ed
bc880cfe
3b9a4b34
3bbbe5ea
bc5f506f
3bdeb10e
baee0f56
bcb6c070
bc193edf
3c29ef3c
bca283a7
3c5789f0
bbbc7590
bc19b814
3b56559a
3b9b95a8
3c8805e9
bc3b6c5b
bb4e9a3e
bb9e105f
3c8cf0d0
bac032e9
bcc32002
3c16e48f
3c0789a5
bbd58850
bb32b846
3c7e5d4b
bcd6ca39
3bee6d57
bc94fbda
bbe71054
3c17f46a
3ba1f415
bbe04488
bc4029b6
3b221a8b
bc8a4815
bb844b7f
bca17d2c
bc182186
3c4af66b
bc391733
bcc43bab
3c4bfe65
bc87c218
3b73a212
bb830fa6
bc935d10
ba37f70e
3cbcb910
bc47beec
3c8c1d5e
b9e94dd1
bc3c814f
bca8ea63
bc51b7d6
3c6a531c
3c87e33e
3c069048
bc6ff137
3bfefd09
3b492085
3c5b59fb
bc40831b
bc488aee
bc9df043
3c236688
3c9b221b
bcb4010d
bca407e3
bb171d64
3c44c58f
bc21e14d
3bd7cc9d
bca702d8
bc9426db
ba839b44
3c889c9a
bc7598d3
3b892cbc
bc65da92
3bee0fa8
3c485196
3c0070e3
3c1eafa0
3c18bc24
bc9c5fe5
bc502246
baf47f18
3aafd5be
bc46b45b
3ccfd841
3c89ab1c
3bf081b3
3bf31803
3c84df17
bc0c094c
3cae99c4
3c2bb0da
b9bd8793
3b2827b4
3c905677
3bd46ac6
3c0d0992
bba99d66
bcbcd300
3c06d48b
3a579d60
3bf852cf
3c9ff5d7
bc0f5fe0
bbc85a9a
bc2e3a60
bc97dbd8
bcb26cd1
3c8f4fc5
3c8b9933
bc07ef07
3c85ec28
bc70db92
bcada5a0
3cb60b4b
3c481257
bba6012b
3c709e36
bbd08d90
3c461cac
3c7ea2bf
3c82588a
3c6ac115
3c8129e4
3bef942d
bc1948b9
3c94fcd3
bbcbd82c
3c795a4d
3b3e15ee
3c2185bd
3c319d1c
3c52c6ce
bb8e03b3
3c1f1322
3bdbecdf
bc99ae35
3c9105d6
3ca6c432
3b8ecc8e
3be2a1d8
3b9c2c3b
3c63c146
bcb9212a
bc024503
3bc77c61
bc648015
3cb0ff63
3c63cd79
bc3ea85a
3c41cf9e
bca782d8
bcaa46df
39f57766
bc9e58ee
bca72e1c
3bd54f45
bc01903b
bc8fa26e
3c90a952
bc1fb8e1
3bb42ad1
bbcaa3b7
bbe7d248
3939d1fc
3cc4bcd3
bc9b83f7
3c2fa52b
3c082a6e
bc2da558
3c55ab68
bbc6b9ea
3b7bc5da
ba497b00
3c6f9a77
bbbdde25
3b9e8e2f
bba20468
3be6e7c9
bca76807
3bac21a2
ba85ef20
3c0fb202
bc125f7c
bc8710f0
bba16c41
3c9d71f0
3bb4e986
bca7c06c
3cd962d1
bbb711b6
3c97d159
3a86ac46
3a0df927
3c40f81e
3b672365
3ae588ed
bc193746
3cb18849
bbafac35
bc886a14
bbab6bb2
bc86ec65
bc58c9d2
3c299563
3c8f149e
3c87e6ed
3c329fd4
3a8a124e
bc88a3bd
bb55682b
bcb2148d
bcb46b4d
bc1a0c5d
bb9ce4d3
bcd4f5a2
3aba0188
3c76e960
bc803299
3c9d5a85
bca75086
bc788ffa
bb65f7b4
3b8d5511
ba0e6ea9
b7d5e8d5
3bbd3e7c
3afe4f59
3cad24a4
3a9a6c75
bc6dab73
3cd1b7c2
3b5f8810
bc98cd71
3b30c63a
3c877cba
bcb224b6
3c1ca53e
bbc318d1
bc96fcf6
3cba4c95
3c4aaa82
bba83b3f
bbda90e3
3bf69a21
3c691d4c
3ca7a49f
3bf1d3cd
bb14c500
bba601e8
3bbb2689
bcf0aace
bc24b052
bbc043b4
bc69babc
3ccacc74
bcb6afc9
bc8bdedf
3cb33e0f
bc5498fe
ba8eaca3
bb2b9c73
3c03556c
3aec82b9
bc299246
bc6eccc7
bcb97878
3c017ff7
3ba0848b
bb2744e0
3c24b61b
3c53d3b5
bbc11e58
3cc23879
bc81d1e9
3bee506d
3b9197eb
3c0682e8
bb9214de
3cc067f2
bbd7e6f6
bab21657
3ca06bf7
3c62080d
ba5ce176
3c8e8d7d
bcb2b296
bcb79426
bbcdc72b
3bf42a63
bbdcb28f
3b605203
bc26313f
bccda3a2
bba3252f
3c9365f0
bcc786fc
bbd040b9
3c973f78
bcc79f99
bb237ed3
bc64249c
bbf02d35
bb930089
3b47250b
bcbce088
bc22306a
3c787473
b8d6782d
bc2dcdc3
bc2bb303
3b298557
3bc87554
bc7efb56
3c1a648d
bbd5232e
bc12902f
bbb1a72a
3cb8717e
bc725096
3be80124
3c0240f5
3c5f8fc4
3c144cd3
3c45fcf1
3b05ffb8
3b82a5d7
3c7f5b1b
bb098b8d
bc9350e2
bb940313
bbd72eec
3b014a72
bc5d45ff
3c8b4b96
bca17cce
bc15c359
3aa20738
3c76246e
3c6e9b1a
3c685273
3b8ab9f4
3c890d54
bc013c4c
bc9ed448
3c85b752
bc3cb29f
bcb2884d
bc0a207c
bb90aca5
bbbd7cbd
3c8eb59d
bc8358cf
3b6e1f36
3cb835c6
bc83339e
ba60ba37
3c2faf1d
bc90dd15
3b52b1dc
bc803274
bbcbc822
bca40c48
bc4436dd
3c388706
bc875d1d
bc30ca18
bc943443
bc51948c
bbc09761
3c6e964e
bc34e03d
3b5ad5ba
bc4879cd
bc3f5d5d
bb753720
bc04f08f
3c478ccc
bc3b1bd9
b89e55c1
bb84b51c
3c00b1c7
3c83f06a
3c61d39b
3a0dff99
3c92b711
3c114835
3bb7917c
bbdf54f4
3c5a608a
3cbbd037
3a0d653f
3c9184e1
3c92d50d
bb8afc26
3bb56fb7
bc10a520
bc941950
bbb2265a
baff411c
3c8daaa9
bc2af4e8
3c1e3bb9
bcacbdaa
3c473f46
3c5aa3d9
3bf6eced
bbe818e5
3c526da0
3aac0068
3a5fd8bb
bb0813be
bc2fd4f2
bb8d88ce
3c65b00f
bb84f7ec
bccc531d
bc3cda32
bc61b573
bc50d135
3ccf4b71
3c08f178
3c8cb30e
3ae445e5
bc5e07ab
bc711b99
3cb4d64d
b9c8791a
bbe74b6d
3b57b693
bc3fbee1
bcb0d493
bc33c535
3c85ad35
3b26e4c2
3c9aa603
bcc808fe
3bbf920d
bb40d193
bc921f2f
bcd30fd4
ba891a1b
3bb5920a
3b3a20ce
3c982718
bbd9dc80
3bec27bc
bc2d0a1b
ba9fa2ae
38e8883f
bc6b6454
3c441749
bc82a230
bb67f6c5
bc011f87
bc2a69aa
3cc4970e
bbbf8c97
3c4eb34c
3c2fd5e5
bc81d671
bc04b005
3c6214c6
3bd07676
bb85ca04
bb4d6b4b
bb78433b
3b970281
3c4530c4
bc924e48
bccab0d2
3bbde25f
bc0cbe78
bc96fd67
bbd32887
3c302e22
3c7607cb
3c0f834d
3b009386
bbdaf1bc
3c43175c
3b94189e
bb8da056
3ca79fc4
bc922202
3c13fd11
3b2ca678
3c83e4ea
3c2bc08d
3bfe4845
3c96e394
bca231a5
bc105240
bc673161
bc620cfc
bc6ad759
ba37ba41
3c8e06a9
3b9d87f9
3ca0646d
bc60ecf0
bc2a3f1c
bbf6c53b
bbb238a6
bb9796dc
3c0683d9
3c76da6a
3cc11c31
ba75aa78
3bc6f07d
3c90b754
b9588fb5
b999c700
3cbde3fe
3c98a1c2
3c889168
bc26dd66
3c100a31
3c59efaa
bb5feaa6
3c91ceb3
bc83d0b2
3cbebbaa
3c27f990
3c4f2e07
3c5cacb7
bbbb91e7
bc69d41a
3c91c60b
3c9bfb2f
bc80818a
bc981bb6
bac2e78b
bb24267b
3bb718f7
3c85226f
3c807432
3b1a11cf
3a8c9230
bcad4bfb
3b46747b
bc0208f1
bc5c2f3e
3cba2cfc
bc1755cd
3c27dbb8
3c1124a1
3b7ae937
bc00a375
bc6cf79c
3c2e81b7
3c849245
bc68a7b9
bc0249c1
baa0688d
3c087d0d
bc89d845
3c96f72a
3bf91406
3c95a643
3bbdc840
bb27f052
3b396eae
bca3c072
3c51d5b9
39b91387
3c8bc8b5
3c9350a0
bc18877d
3c150508
3b1aef22
bc78e6ce
3c9302fe
bc259d19
bb2a7fc2
bca0ce48
3bf087a7
bcaafd17
bba1c85a
bc36ba5a
3be99a41
bc7ae1f8
3ca2816f
3b92764d
bc85f450
3ca20a05
3b72876d
bc9bee05
3c8b39ce
3b8743e3
3c21b39d
3c6372b5
bc7f3d3c
3c0511ae
bc11a214
bc4ce182
3b88dcaf
3c179168
bc8e2546
bb05484b
3c382758
bb2a79c0
3c4336cb
3cd61c3f
3c3e7a38
3c0ccef1
bb8eb8de
bc9a7d33
bc59c0c7
bc473c73
bcba9481
3c685ffa
3b83212e
bc420c73
3c802276
bbc67918
bc83903d
bc7f0bf4
3c93367c
bc8f7b9e
ba73fea6
3cd8f2a2
3c92c701
3c5108d4
3c721d9c
bb84d4cf
bb0be562
3c916b6b
bc71e59c
bc363815
bb246558
3c3b852f
bc121502
bbf3aa13
bcc0d504
3c3bf3a2
3c666612
bb8d8f6d
bc51884f
3bead2db
bcadcf88
3c0b8905
3b6ae902
bcbf28f3
bc9e5515
bc328977
bc4c2c5d
3abe22b2
bb7f2b73
bbed6c59
3be8a0fe
3cbfb6f4
bb549ab3
3c3f8d4f
3cd998c7
bcb7b538
bc3e3d6e
3af6bf87
bc8cd49f
bcaf441b
3cc21558
bbc2a525
bcaa8444
3b753a83
3acf48b1
3b5afed4
3cd71a66
bbac06eb
bc7cdafc
ba294b0a
bc5ddb98
bc7ec4b3
38d4e4fd
bae96e7f
3bff72a3
bc353474
3c700042
3c464c71
3c1c250d
3bd791f6
3c6116ff
3c6319bc
3aaffba8
bc4fe909
3c6d7049
3cb497b0
3a1cb173
bc6deb2f
3b6796ec
bca23295
3acfaf4d
bc55d51a
3c89068a
3c4a6eb3
3c99d510
3c7d4035
bc70cd64
3ab34556
b85c9ed2
bc475b54
bc734e2e
3c5083dc
3c9bac58
3cb2d1d3
3c96d2f5
bc04fe97
3c7a4431
3c67c565
3c4ab960
bc8c4244
3bf37fb9
39f3160d
bc6ed404
bc29dde6
bc80e810
bca57041
3c95201d
bc62f00b
3c872c00
3c503359
bb9f7a03
ba92f85a
3ca0b69f
bc322e22
3c10075d
3c461470
3c92b498
3c87d2b9
bc212d3c
ba32044a
bc6483bc
bba2f735
3c19f203
3bfd6de3
3aaebdff
bbb2848a
bc1a570b
bc60db28
bc6e39bb
bb3d52b6
3bbf1525
3c50664d
baf7a263
3b5c4099
3b03e5f6
3bf55e4f
3c0942ad
3ca1ba87
3c316fd9
3c8b644c
3b7079d9
bbf1d6f7
bcb31b82
3ca388a7
3c8b7ff5
3c91dc1e
3c3ca4bf
b7da1a93
3c512d84
bc5e4713
bc57f41d
3c7eba6a
3c9c4627
3c4e8b19
bc92c7d4
3b3410ff
bc5360ef
bc8e4c7e
3c2b7c03
3c0f0f22
3c839688
3c55c795
3b3b4595
3c416ffd
bb8a96cc
bc178962
3b4246d9
3c477a39
3c8c7de7
3a06b044
3cab10b8
3c8f1775
bbbb9906
bc3a098f
bbc5e120
bc668c00
3bbe4110
3bb354a7
3b9db53b
bb16cc53
3c07b95f
3c455dd1
3bc9a251
bc81737c
bcac06d8
bafb0330
bc99918f
3b71c0a2
3c333683
bc91219b
3bb759dc
3c7f6a0e
bcbdaf28
bca8702d
3c9731f4
bc049c3a
bb3bbb46
3cc5119a
3ad3d862
3c488ee2
3ab74924
bca140f9
bc7a251b
3bf18361
3c859823
bc1a7469
3c805763
ba04de21
bb8c6fb4
3c6dc6c4
bc1b945b
bc554b31
3bdbcbd9
bc5ae3b4
bc0ac080
3c861e9a
bc64a737
bc9f5afa
3ccf791b
bcbb37a3
bb6af2df
bb384b54
3bbfe38e
bc1e17bd
bc06bc5f
bc598070
bc071b50
3bed9eb6
bc1be3fd
3b5158db
3cba7697
bcad9fa4
3c861634
3b4ba6e6
bb47968b
3c8ca73c
bb0d4a92
bc9daa4d
3ba87ca3
bc007377
bc72375d
bc005279
3c6cd534
bc6d36c1
3930f4e6
3c8d1a0a
3b80260f
3b14acb5
bb1f9f76
bc9cc879
3b8e232a
3b9bdb28
3c88e46a
bc7d39c2
3cac3558
3c31ea1e
bcc9e046
3bd15f8e
bc379181
bc4ac49b
3bf52684
3b6822c7
bab1e515
3ca3d72a
bbe0ee6b
3be52ba0
bbd264c5
3c22bc0b
3bfca1d2
3c39606e
3b37c848
bcc41c41
bc886971
bb88a766
bc845bca
bc3160d6
baeef1aa
bc963d32
bc21025d
bc00c313
ba0e7b14
bbf25bce
bb9bc649
bb7e5564
3c7104dd
bb53fc38
3a969b74
b86f7ea8
bbb0d4ff
3c714986
3c8488f5
bbf7ce63
3b37af37
3ca16440
bc8672a0
bcb2db1d
bad939f6
bc849b9e
3bfdc2ac
3c0937e5
3bf18812
3b817f00
bc414803
bc0f3772
bbf9e8dc
baf04caf
3c4055a6
3bcc5607
3cb6a9a7
bc92e84d
3c8513c6
3afd8c91
bc2bb083
bc950a2c
3c90bf88
bcaa1d28
bb3b3c0e
3c26526c
bb266d2b
3c98cff9
3c957581
bbcfee3b
bbc8caec
bbc46b99
bc1021d7
bb45c449
39be9b20
3c495c4a
3c0e1e06
bc834d4c
bca2d37b
bbf2e58e
3b93cc12
bbebf5c7
3c281641
3836df25
3b98127b
3c38319b
3c35c94b
3c80a684
bbcae89c
3c4887b9
bc17cf40
bb1784b5
3c24d20c
bc472bef
3c509aad
bc149c00
bca3c504
bc48968c
3cddb973
bc439a9d
bc78353a
3cb145f1
3ac50231
bae0699e
3ac23cfc
3c250154
3c66e1d2
bbe3247f
bc51de6c
bc9c8ed2
3c8fd02f
3c862ff9
bcb1e024
3c6a1566
3c112fde
bbdb049e
bc527522
bca3fd34
bb4ca2ac
3c8a8887
3bd4470a
bc4b44af
bbe589ea
bcc8565f
3c26a5f1
3bb76e90
bc660012
ba87bdbe
bc367860
bc47f95d
3c2bf1f3
bbb519d9
bb79652d
bcd9e9eb
3c3c7679
bc932cd2
bc6e477b
3bf1e520
bb71c019
bc4b6e0d
3cb733ce
3c501c23
bc86184e
3bd8ff8d
bc9e20d7
bc210d6d
bc658003
bb0f549c
bb404d2b
bc6329e5
bc206dcb
3b9e3bfc
3c179c83
bb7f286e
bbacbedb
3a5139cd
3c5c766b
bb84504b
3b807ba4
3bd4c1dd
bcc01af8
3c4a389f
ba360f1b
3c0789fc
3c42e4ac
3c7e0c6f
bbbed63b
3cc7250a
3c0c5ad0
3c9033f6
3c6b7699
bc322df4
bc775255
3c1e9f32
bc5fe0a8
bb0d03c5
3c86324d
bbffde32
bca9a275
3c3e4c8d
bc67404f
39ad01d6
3c84bdd2
3c9b0d85
bc2e71df
bc341569
3bec0114
3b9fcb93
3ca9d305
bb6acfa0
3b8c9b6f
3b84f3a7
3c4487f0
ba2c709d
3c585c3f
3ca1967a
bc827ac8
bba7b2c0
bc15245c
bb97890d
3ccbe56d
b92a38bd
3c69992c
3c41ee91
3c045ca1
bb2e2b7b
bc7661eb
ba9f39c2
bc1b9da4
bc21b321
bbdea495
bc3b4060
b9ad7a19
bc579eb0
3c46a45f
3c7d0b1e
bb9b4eb2
3c145d60
bb340567
bca39410
3c2a8379
ba1b8ca8
bc0097fc
bc4f6e0c
3c46ba4e
bb3b091a
bc4123a9
3c5410e2
bc4063a3
3c1fa6f3
bc0ac9b0
bc2ef14d
bca7713d
bbc8a62c
3c132ecb
bc01ebda
3bd898f8
3b8b9a6a
bc99462d
3cad8b40
3bc31bdc
3c80326e
3c5518d3
bb850cf8
3ba3c6de
3b6c3670
3b3f048d
bc9ef4d7
bb95100a
bc446e56
3c43a72b
3c6d23e5
3c8b46fc
bc0e707e
3b55bab6
3b17f5f4
3c841a38
b9a989b8
bc3272b4
bbe22d15
3cc25f10
3bbc34cf
3c0abfd3
ba1fa519
3b0b06c0
bc0883dc
3c9c71b2
3bfa2ba9
bbe77305
3c9d18a5
bc7cedfb
bbf0a4f0
3c2d75e1
bb7a6218
3c98db40
3c9c808d
3c0ceb1a
3c8aa54c
bb907462
3c936d65
bb60811b
bba8c700
bc31e2f5
3c925b01
bbb61eb5
3c89eb96
bc8c18f5
3c1e443d
3b8c16e7
3b75bdb2
3ba54742
bca8ab5d
bca2deb7
3ca2ec4f
3c23a60a
bc2d841c
3b1ab7ab
bc87126d
bb29c91f
3c828f4d
bc743e41
bb949c76
3cae94ba
3c8c228b
bc750212
3bc4b72c
3c50f257
3b0bda4b
3cbbc56e
3c3db628
bc8da36f
ba6691bc
3c0a1f96
bcb3ae08
bc1ec322
bca5c6a2
bc7ccccb
baaa5782
ba68fd5a
bc40aa98
bb1e2b28
3bd7fe9c
bcbb143e
bb31d6d6
3c2f06aa
b950fbb9
3be9d1a9
3c8dbe5c
bcc598f8
3c2b7519
bcb2e9c2
bc555c20
bacfb2db
bc91d042
baef2999
bc4f8b5f
bb95c57c
3a1fbe32
3bc7f822
bcbde7a6
3c12f9cf
3bcd6ba1
3b894d2f
bcaefa3d
bc20d8b8
3c56b556
bbfb4695
3c0e0648
3c37db40
3c374f82
3c4132da
bc66dcfd
bc4bf226
3b7fc623
bcc3c66b
bbf98f25
bc3bf8a7
bc3000d5
bb07542a
b725416e
bc3b51b6
bbfaa797
3c793d57
bbd11b08
3c07c8c4
3aa90fd9
bc1ddc90
ba5ebe78
3c6cd469
bbfe488c
bcc96795
3ba6c52b
3b0c41a8
3be719a6
3b47f1e5
bbbf0347
bbb27d13
3be75f6f
3c193d3a
b807e53c
baa26ff1
3bdd5243
3bed904f
3b990ba4
3c38a1a2
3c40e6d1
bbe913f6
3c4a7522
bc9225d5
3b0e5497
3af2af4e
bab2b87a
bb14c509
3b9fee6e
395974f3
3b84f8fd
bc917520
bc9cca25
3c49abe2
bb1c2ed7
3b3c0b56
bb83a985
bc6bf942
bc815828
3b853e47
baa0261d
3c8ffc70
bbef5780
3c429ea1
bb8dd350
bc2afb17
3b6b861c
3c3f889e
3bc4cc96
bca1c1e3
3c176913
3b540892
3c511b08
3c05807f
bc0e2925
bc7b55d8
3ab813a5
bc3a8cde
bb89d5ef
bc19fe3c
bae5888e
39b3f4e5
3c8e8bfe
3bbacd82
3c198fdf
ba903313
bb07f297
3bb1c37c
3bfc7b8b
3b1a2a3d
bb82f35a
3c41c8df
3b88bbde
ba5e17b4
bbdccdd9
bbe75ddf
bc60e9c1
bb9f1906
3c498c3b
3c159d4c
3b2e3c7a
bc1490df
bca5ae92
bc672942
bc5d8460
bca06976
bc2fef13
3c6380d7
3c377d5a
3c885e70
bb0852e4
bc85a988
bc74b4ba
3c7e53dc
3bd4c606
bc8e2b1e
bade5673
bc22086e
bbb6c426
3be62118
3b3eb290
3bbf2cc9
3cd858c9
bc48b6cf
bc4df8b5
3b98000f
bc65c1e8
3b6d6936
bbb9f406
3b296ffb
bb847c0a
bc300a71
3cac33bd
3c6bab89
3bf2a22b
3c91b386
3c8b5514
3cd8eba5
3c352106
3bdf00d7
bb88f9c0
3c60226b
3b18b649
3c66d423
3c8bafe9
3ab20b67
bbc47111
3c88159c
bc0c9af1
3c8ea8e3
bc26223e
bc857525
3bbabfdc
3c3df54d
388dc479
bbb2e914
bc944c53
bcc43fd4
3c650eb8
bcb37b66
bc0cc48f
bbff92cc
bc2f9fb1
bcdd21dd
3c5df35e
bba9e3fb
bbb79c62
bc600b8f
bc9a9991
3c3a4dde
3c89e1b1
bba9fed7
3ba40d71
bc5c5c84
bcb91c6d
3be6bb94
3c8af9d7
bc8d1e60
3c26bbee
bb23b393
3b9ef3ea
bc9912a0
bc33844b
3c665ba2
bc2cf791
bb1202b7
3ab12cc4
3c5b869b
3b9dcefe
bc3528c8
bc859e44
3c435bb7
3c3c86f2
bad2c820
3c07a659
bcb202c1
3c00a9f1
3c9d40a5
bc9839de
bbdc6db0
3caa65d7
3bb5e858
bc84481d
3c931e28
bbbefcfc
bb5a9d38
bc4fc561
3c388d05
bcbeb2b5
bc166e7d
bb6e4b11
bc376ad2
bc38f0a9
3bc53b39
bc918796
3b99da04
bc63db91
3c0fdf96
3b59b940
bc25d744
3b217bbb
3cd8996f
bc1d3f7e
bb50dcc9
3cb97990
3c3ec94b
bc2db1d9
3a94f05f
bc225b63
3c7ad1cf
3bd455e3
bb99fe12
bc5a12df
3cb05eff
3befee5c
bcae3133
3c6d6bd7
bc997d49
3c8286d0
3c6c98c9
bcaa909a
3b03c884
3b6f5823
bc92dd36
ba57d344
3c350853
3b88be4f
3b87628f
3c5bc670
bbd0512b
3c181006
bb832205
ba64a415
bc1ad04d
bc80250d
bcaafcd4
bc386173
bc92aa2d
bb98a4b2
3c746f72
3c5c4d8f
3c6d3b47
3c29ed03
3ba9b02e
bc6577ce
3c8a7fce
b9796314
3c1311c0
bb9dcb8b
bbb202ab
3c4e0469
bbf87a94
ba56805d
3b4802e4
bb897292
3bc0fbbe
bac74b2e
bc3a6aaa
bb8181f1
bc1af7f8
b9583877
bb48c7df
3c93aef1
bc75f4e3
3c99bc7a
3ca67bdc
3c8955c1
bc94ae26
3c134005
3c66efa6
3c359b3f
bbe02ada
3ca09546
ba981445
bcac5c75
3bc3773d
3c10e78b
3c362f56
3bc688b2
3ca6ee87
3c7990a9
bca61ec3
bae02e17
3bbd90c7
3bfbc9db
ba3090c6
3b83f8f8
3c32e2aa
3c113ab8
bbbf3ebe
3c901af4
bb05479b
bc2cae79
bc850502
3cdd4a04
3c71b719
bac12922
bc1e7451
bbae6ac6
3731d6a7
bb682bb4
bb569c22
bbd49301
bc1794c5
3c3f07f6
3c828627
3cacbefb
3c83c623
bbdbeede
3c63308a
bc82b0e6
bc94a002
3bf062fb
3c247f92
3c4f4c06
3cb07097
bca6afd9
bc9367d7
3c51eafa
bbd5e6e9
3a111e0f
3b4c16eb
bbac6ee9
bc3ef298
3ccbb256
bc7c4edd
bc648ed6
bba24189
3bdcb9b0
bc2af91f
3c9e5fcd
bc9dafc7
bc6c3540
bbf9bc35
bc73d47b
3be3b881
3ca83897
bcaa9b25
bbfcf972
3c639562
3c1ad849
3c3ae531
bbc9b20a
3c4da3f6
bbad7709
3c4c7319
bc52e82d
bc79c1cb
3a68d459
bcaf02f3
3c0a55ec
bc2ddd61
3a4c81d7
bae66bd2
3cd2790c
bc0fa67f
3b5e8d02
3b468ab1
bcbf19e7
ba0e1806
3a075e8c
3bb4dd3e
bb108d4a
3b8df6b4
bc11fa65
bcd646a3
bc6dcf49
3b9f3e34
3c2f7fad
baee7253
bbd731f4
bcc98529
bc7262c0
bcb9dcdb
bc84d112
3c2c9289
3aeebc2d
3c3fe641
ba79ae82
bc1b8b4b
bc1d2ce3
3b9507a0
bc66186e
3c1b7229
bc1b1dd3
3c7ec579
3c81997b
bc5b7664
bcba4ce2
bc98919b
3c25e40f
bba18dc9
3c1165c0
3ca16f57
bcb4d9e3
3bcd3b88
3c5b03ed
3baca049
3c202d7a
3cb34d83
3c307657
bcb5e4b4
b8eb060d
bc594290
3ba2cb4d
3c2d4b35
bc8f410a
bcc751f7
3b9a3b73
3c828d8a
bc9f8d5f
3aa0b0ee
ba9d55bc
3baad3d6
bc08091e
bb77f2bc
bb791ac0
3ab61b74
bc4a29c8
39e08bfa
bc0b5cbb
3c188d6b
bca5a336
bc810694
bbacdd82
bc91f81f
bb893684
3c80d3da
bb0a05f5
ba17c8d6
3c9b98ad
ba6de088
3c3befd5
bc69a9ad
3c4e24a8
bbbc6907
bc34e6a4
bc26e625
3c87bbb9
bc732508
3adae9f1
3b33e4b4
3bc63f8c
bc409e30
3c8078a4
3bc15f88
3c59f353
bb234bec
bc445954
bc09cd78
bc95299f
3b3933d3
38e034df
3c822bc2
bc18624a
bcacb40e
bc9441b6
3c90a564
3af0a3b9
3bc2aaa6
bb7db38e
3ca3caa9
bc5fbe2e
bc26b1e6
ba5300dd
bc7880ce
3c81e0dd
3c26f9e5
3ca2a5ff
bc958272
bc07018f
3c54b401
3c018857
bc95b548
bc7baa04
3ca06182
bc4aec7b
bb73b3d7
3aeb45bc
bbdf07ba
bc605d2a
ba90018d
bc362576
3b9c2b2b
3bfe5107
bc83c63b
bba11b23
3c3355e1
bc59c044
3a934ac2
bb8c09a6
3b332e6f
3c96ed4b
bc264cda
3c75e42b
3bee1c46
bba13858
3c0e9d13
3b4c70ba
3c889b60
bbd70419
bc20c365
bc8c1c8e
bcba3344
bc3370a9
bbbcdd0f
3bbd52bc
3c54251a
3bf653ab
bcba1edb
3c9d2a08
bb06453a
bcaddc13
bc4e9c8d
bba185b7
3c4dc322
bc39fb4d
bc039209
3c766b05
bc129eb0
bc58013d
bccf90de
bb0a425b
3bda19e1
bcdb5d0e
3bc7bdfc
bcc5e8c5
3bb86bd7
3c9c557a
3bfbd722
3a0affab
bbbc5a8a
3c61af16
b8987684
3c054ddd
bc4a5aea
bc0cd312
3ae33928
bc40badb
bbd6cf89
3a8e5d8d
3bb8c94c
3c475300
3cac48d2
bc87b6e5
bc72c164
bbb426ee
bc877644
3c42ecd0
3cc6f414
bbcb8bda
bc4edf18
3cb92989
bb75a540
bcc8f4bd
3ca837a6
bcd9b055
bb48e758
3cc1cfba
bca9a944
3b9ff651
3c418e13
bc7c8331
3acfaeee
bc14d09d
bcb428ab
bcd0db36
3c33d914
3c2d98ca
bbe2716f
3c5315d8
ba8b4ea8
bcc62565
3c9cc18d
3c4c349e
ba6423e8
bb94a31d
3c06a3c0
bbf12ba9
3c51902a
3bf0ba12
bc789e11
bc1741bf
3c898083
3c664ff8
bbd3ab50
bc9926ec
bc7a79ed
3c9690c7
bc891c0a
bc535aa3
3b652d23
3c57aaf8
3c576922
bb9e97e8
bc04ce02
bcbaa20a
3ca8a8a6
bca79839
bca6c4b9
3cd2836c
bc81d21d
3b62a7aa
3c974718
3b3522f3
bc14671d
3bf046de
bc13315b
bb9847c8
3b900d56
3bf81572
3c7dec90
3cb86763
bcbca890
bb9f37a9
bbe23715
bc8d196f
bbb0623e
bc1f9461
3b248ca7
3b890900
3ba70955
bb7e2dd4
3c862b79
ba805a6a
3c022119
bc77dbb4
3badbe54
3ca26316
bc9534c5
3caf3a01
bbb064b7
baf30806
3bcb741b
3c7c6117
bc685914
3c6ffd4d
bbc52d94
baa7a62a
3b84d67e
3c9b54b4
bb9e5847
bbf13562
bc5a30f0
bc846a21
3caa24c8
bbb4bb94
3c456c25
3b96e959
bc84ec8c
bbc12679
3c95d25a
3c26ccf6
bb9c0de6
bc1f4977
baea9ae0
3ba08e78
3b3a0125
3c8b8646
3b6efd7e
b9e971c9
3ca10ef3
3ca1491b
3c3f5a8c
3c3be165
bb3d34dd
bc313dfb
bc36efe4
3c8640ce
bbc60a46
bb8ecd9d
bb9071b9
3c1f5030
3c1306f1
bc5ddad6
bc57fcd5
3c693583
3a596833
bb89eb39
3c6e9622
3c0d954d
b9a91961
bc88f8c0
3baaee92
3c2b23ef
3bd2c0be
bc1a2c08
3cc39f1c
3b2f6800
bcadd757
bb9c2a4d
3c8b6094
bc8827ca
3c23f483
3c26fc0e
bc3a3470
3cd7c658
bc97f9c6
3c1aee97
3c6ad422
3acdd911
3ab74c29
3ca0bf6f
bc15c6e8
bc596116
3bf39561
3c0b0dc5
bb5aa82d
3cb78a0c
3c8479d6
3b64ffb8
3c2d1f19
3b86bdff
bbf1f76d
3bd190d0
bcaf34ea
bcbed09f
bc3f221d
3c5d5d8c
3be4a998
3c93bb6a
3c0ffecc
bc5cd9e1
3b7b82e5
3c717f8d
bcb894ca
3c2db4ab
bb82ba08
3a6a5142
3bce7874
3c43a0eb
bcdb48b0
3c227151
3c4b98ee
3a3afa67
3a6b76cb
babbaefe
bc39b64e
3c421759
3c423b7a
3b52a441
3c87d454
bc4ab861
bc3b0d16
3c6a80e3
bc4bba3e
bc9cbcc5
bc343751
3b39f31e
bc64b7f5
3a9c3078
bc4cf6ea
bc6de889
3a57b6be
3b622756
3c49c5a7
3a8697a3
bc992b38
bb41afa7
bc2410a2
3c14504c
3c02ee6f
3c897206
bcd35574
3af88823
3cc2866c
bc260f17
bbd2abf7
bb49e7fc
3c497388
3bdbd673
3c50958c
bc05e38f
bbfa6109
3c451936
3c0c82df
bb2ac68a
3cd597c8
bca47c7f
3c706f85
3cd5f12c
3c5b16c7
3c7b0ac5
bc029292
b9d7f041
3a71fb85
3b1da34b
3c8d9ff2
bc42859b
3c8f3bcb
bc6a9da2
3c6da499
3b632af3
bc80d308
bc59aa62
3c7aeb01
3b91398a
3b50679d
bb2634bf
bc9a5d17
bc3659c7
3c2d4169
bc8b9254
bc9ca9c1
3bbe11a7
3c8c4922
bbcf60dc
bc817e5c
bb8ec971
3c971295
3b66db97
bc701088
bc576e6c
bb941757
3c07c5b3
3af8b4a1
3c033123
3c948414
b99ea86f
bc8a9224
bc2b7da2
3a69e2ee
3bb7715b
bba4165b
bb144fe6
39831450
bc6883cf
bae9374d
3c900a63
3b984922
bc7102a4
3c33ac38
3c5ba6ba
bca26f7c
3b6a78fd
b7c3745e
bbdc11fc
3caf303e
bbc36eef
bc517ca8
3ca4d752
bb25f287
3b7dd099
3c1ff3f9
3c13efda
bc62e932
3bae5b91
3c9e2d5e
bc323eaf
3c8ddf79
bb842961
3caaca7c
3c917d7c
38169355
3c6a50e1
3c1be975
38415b80
3c8dd639
bb8228eb
3c43aed4
bcad5f21
3c0e5786
bc8ed07d
3c879a6d
bc7ef2dc
38c04f10
ba41531c
3c12e5be
3bbeed24
3babfff9
3cb28859
3c326d4e
bc8f539d
3a65d5d5
3b36eddb
bb23d423
3cd90e0c
bc8a3947
bbf4e19a
3ce631cb
bc1d3a09
3a91aeea
3b0d79de
bc61083c
bcab7558
3cb944a5
3b5b1d77
3bffdc3b
3cd44244
bc1fd4bb
bc491b5b
b95a3e8c
3c897c1d
bcccfcd1
3c14cffe
3b17bb08
bc88a8f6
bbb011e9
bca4e679
bcb96c6f
3cbbfb97
3b92bae7
bba2867f
3b924eeb
3a733496
3c417f84
bb255d5d
3c8c5d34
bc83f5f8
3cc175d9
bc4227d6
ba3a7180
bbb8d8a2
3bbd60ba
3b73a2e1
3c9743b2
3bd6d919
bcb1e877
bbc01469
bb845d41
3c220f9e
3cba7c18
bca9c0ad
bb6265a2
3c58b8bd
bc62b682
bab11b63
3c5bbb45
bbddc407
bb9863bc
3c0a171f
bc91a2ed
bc8889d7
bc66ebb7
3c6487be
bcd0989a
3bdfc734
3c31c433
bbc42db5
3c0e5851
3aef76ce
bbb06dd3
3c1e5415
bcc02682
3a86cc74
3c2de5a1
bc22fb4b
3b39b2c7
bc102189
3b41c6d7
bb4a7dbd
3c931bbe
bc867b54
bc7e23f7
3c743b5e
bb0cea1a
bc144bee
39e241cb
3ad93668
bc28778c
3ce9d2e9
3c8a73cb
bc8044c0
3b0ad9e3
bb2d3f76
3c36f7d8
bc223503
bc8150d4
3bd18b41
3c759f35
3b047e48
3c7d07f9
bc36f774
bc0e11fc
bcb87873
3cb1a9e2
bbf43918
bb7ab057
3c887ab7
bc878d72
3c367173
3c3b8505
3aadcb9a
3b3696de
bc1a3d3d
bb9c196a
3bb86a57
3cad6cfe
bc0951f8
bae327c7
bc6db072
bc443d12
3b157ce6
3b81c4e2
3b7c9118
3c9c4d7c
3c73f73a
3bd066ef
3b07720b
3c0223dd
3c75ae4c
3c07e063
3cbbf6b8
bc96270c
3b8afe49
3c8b4211
bbbb2b6f
3c2629cf
3c98b7fe
ba898e23
bb3e1ae5
3c6dbd93
bc0898a1
3a382a20
bb0dcaf7
3ca4c4ca
3bebe07b
3ba4b670
3c431104
bbc75c7a
b8e9d046
b7b2ad67
3a12f529
3c6bf0c0
bc93e2a0
3c6eab73
3c33e7a6
bc2bc066
bca1cc68
bc94d5ae
bc0342b0
bc59caa8
bc9ef57c
bc238113
bc2a198e
bc0f1f56
3bbefffb
bc6b0fd1
3b9d1895
3a277def
3c2f2105
bb8bf265
3c0a78b6
bc9d9dc5
3cbf7527
3bc15d83
3c9de460
3ae1e495
bc41b24d
3c12acc7
3cbd0554
3c0b06b2
3c6405bb
3cc46391
ba8eae14
bbf4c148
3cb89e23
3b0353ee
bb8af4f3
bba94e00
3c9a4d8b
bc45a64c
bc2bdb30
3bb588b4
3c975ce3
3a9627e4
3c8445af
bca372de
3bac3143
bc70f4dd
baf44d78
3cdfc437
bc307c76
bc10f293
3ce05f8a
3b9d6c48
3c575e4c
3be8b3a6
3c36281c
3c31f529
3c9dce6e
bbf95713
bcbd5832
3cb81983
bc75bce2
3c41a61d
3c77174f
b984a84e
bc989470
3a8aec3e
3c800e4f
bc60dc56
3ca50199
bc48baa8
bca24b47
3bf6149a
3bf67152
bc3cdef1
3c9e0f2a
3c1fcbd4
3c027a77
bc5b36b2
3bd1abdc
bc563fb4
3c73b187
bccbb17b
3bce8500
3c9b4fc8
bc47e9ab
bc2a6d7b
3c295638
3b366fd4
3befa2c8
bbe927e8
3c42b50b
bc838ea3
3c770ee3
bc89dd16
bce3a2f6
bc588b6b
3c12611e
3c15166c
3cd64170
bc2d5cff
3ba19e96
3c6233bf
bb99a8d1
bc896f84
3b800122
3a693da4
bc9b3d6b
3cc49894
3bc5edb1
bc4812ee
bc320c4f
3c47ddb6
3c066fd6
bb4ede5b
bb1ea7e5
bbcd4414
3cb4f898
3bbbb2eb
3c3fb94d
ba87312f
3c431a56
bb9ac8f5
bc1cb369
bc9f789b
bcd5ddc2
bc0a6407
bc6777b2
bcaa78c4
3c25be54
3c6800d9
3c57cb56
3c5443d5
3aaec4be
3c4d589b
bbafc5c5
3ba07067
bbd0748f
3c148e1a
3c6cb70d
ba0324f4
3ca33991
3c805064
bc9fb176
3cd7438a
bc44b356
ba0db205
3cc400e8
3b8e393c
bc7dedeb
3b57e838
3c61dac3
3c022c16
3c69ba11
bbd7b7e4
bcaaba62
3c0c4db3
3c2e77dc
3c185ef3
3c1f07a5
bc7d3c45
3c889571
bc5c7d6a
bca24091
ba99789e
3bfff010
3c39eb93
bbc11447
3bd29b14
bb2ffe93
bc8354fb
3bf735e2
3c246c17
bc0e509d
3c48f33f
bc2488f5
bc5c5e01
3bb4d43f
3c2a5fb4
bc4cf790
3cbe51c4
3c508734
bbe19cd3
bbf658e0
3c9731a0
3c7f7a4e
3c26b05a
bc90e6d7
39a55861
3cb410cf
3c8e870b
3c9d8172
3ca3814c
bc07a4d2
bca826ec
bba0d9c4
bc6ee96f
bc31d166
bbf92f32
bc433f39
bc7d9142
3c1c37e5
bb7219c5
bc6ef3af
3c810b2f
3a2aeb2e
bcaf6cd6
3cae0f68
3bf19984
3c9acf8c
3ac8a0d4
bc0b9774
3b3d08db
3cb57344
3b569273
3c406b2a
3c9a2af2
bc54bbc1
bc9cf0b3
3c840e5b
bbad2550
bc5dff5d
bc426295
3c9a496a
3c5c8870
3c9b9c16
bc15ab12
3c32aa1f
bb73741a
bc964826
bc980f9b
bc28373c
3bf3ad45
bbbff561
3c9f8575
b8f15020
bcbba480
3cca3712
b9f7d96b
bc5e07c1
3a73c0e9
bc17123c
bc92835a
3b941248
3c8bfca2
bc806ac1
bbfe8bcc
3c6c3b17
3b1fdaeb
3cb31bc2
bc277982
bc2e4ceb
3caef240
3c25a56f
3abd78d8
38ccae9a
ba65b402
3b7a14b3
bb998232
bbc4d133
3c2168b5
3c9ce708
3ab4af41
3c57ac80
3b8508ed
bbdd1cc4
3c18ebaa
3cdf4a0c
3c450d90
bc08aa4c
bc1276c9
bc77a87f
3c080ae7
bb234d9e
3c241833
bc2dc7fb
3bfe4a39
3bdcdb09
bcdced26
bab96f92
bc8ad4f2
bcc65e4c
3bc96ee7
3c1bb25f
3b0218ce
39a35f0d
bc0796ca
bc81d343
3c12adb0
bc239cb4
bc005816
3bc8b3a7
3b84f02e
bc4048ec
bc595860
3c71cf0d
3c20a812
b6b7350b
bc3704a4
3c089217
bbbe1abc
ba2c2631
3c2a5d1f
bb92fd0e
3b63c091
bc9471c7
3cbc4ba6
bcb17385
3a232240
bbf3c792
3c8c70f3
bbbf3a01
ba55ef35
3bc443ec
bca40fb7
3b80cd3e
bbe716a1
3c0247fc
3cc7b5d3
3bc01cf7
bc854879
3c3ad0c1
bc21efcc
bccc3cd6
3c59d0db
bca5a567
bbcc2e34
3cb21f4a
3c73293a
bca74c36
3c8cedfc
bb95f7d1
3c859e49
3b84c30d
bc97d19a
bc9e5dfa
3ccb214e
bc7a405f
bc920451
3c748d9c
bc85dc53
bcbef063
3c2612c3
bc9269d0
bc85f6e3
3ac3231a
3bb824d5
3bfe61ea
3c84f76e
3c6f4aaa
3c76f4a6
bacc542c
3c881ee8
3c083e4b
bc79267c
3ba8cd1c
3aefb3c6
bc7e1f16
bc9f33d7
bc1b524d
bb8dcbb7
bc6a6c1f
3c7ed3e5
3bfba557
3c9b8654
3be3cc09
3bf52a4c
3b9e4ee4
3c7c40a3
3cb2c271
bc8ffd9a
bc255fdc
3c0f30b6
3b76c3b4
3c69b367
3cbcb8e9
3ca8af05
3ca04ccb
3c30f4bc
bc22392c
bc216c9b
3c34f433
3b238d75
3c5075e7
3c9e0009
3c1e214a
bc61bf41
bc33c962
bc9eeb4c
bca0dfcf
3c0f21a1
bcbc6518
3c9c2722
bc789892
bc551fc4
bbc918f9
bc8ee227
bc03632d
3a81d78f
3b1dc7cd
bc45dbc3
bb25dde0
3b28b056
3c2479eb
3c9907ee
3cc30201
3845f89d
3c2ea26c
3c474b07
bc598432
3ac0025b
3c38ceee
bbefd375
bb2744b9
3b2c3b32
ba86a0dd
bc91b214
ba9576b9
3c930d2d
bbe9fb42
bc575802
3c911c5e
3c09b063
3cced1b3
bc685748
3b272a44
3c9bb41a
3b304aba
3b91213f
baf4e6c7
3c5f6951
3b9297ea
3c9cf5ac
3c82e62b
3b933309
bc1b0802
3c2f5fa7
3acd4986
3cbe5db3
3c2c71d1
3992682b
bbdd5b54
bc056e4d
bc152b23
bc3e31b8
bc8cecf3
bca9bd72
3c4b1724
3ca5c32e
38badb33
3ce4931e
3c672faa
3c1ac7bf
bc59f523
3c814b62
bc90c789
bc065d23
bb9a7a44
bc9fdfd9
bc4411f8
bba98f23
38642b8e
bbf1ba98
3c5485cd
bcd14343
bc6bbee6
3c179ec7
3bb5edea
3cd02ef8
bc015fa5
bcb70e4c
3c5c70e3
3c87bb26
bb8031ad
3c9f1309
bc6ee8c4
bc2be586
3b897e9e
bc273fcc
bcdae813
bc3af42a
bc099d31
3c3e0f3c
3c7dbd82
3c050e8b
bc2ffd07
3cb04cd2
3c47fda0
bb1d2c50
3c4745cf
3c05c0ec
ba4a8e8d
3c0a94ff
bc7883dd
bcb5c6cd
3c814d74
3ba0151c
bc87c03f
3cd6be28
3bfefe15
bc033eca
3c888c2a
bcab3e7c
bc9df7d7
bafd40b3
3c7a0f41
3bc6d2ed
3b0d5c70
bb6e556f
bc8f87cb
3ca84766
bb1a2450
bca9aa7b
3c934554
bc360954
bc413d21
bbb3788a
3ba96638
3c60d17b
bc3621c7
bc804552
bc41d405
bb88cd01
3c2ae4af
bb357ba2
3cb62c55
3b4b1dad
bc429206
bb89c951
bc80910d
3c269c81
3c8bb065
3a088872
3b63b282
bbce61b4
3c49d422
3bfb698b
ba344f39
bc43f6e7
bc1f39bb
3c272069
3c77779d
bc0291fa
3c445ef7
b93e89ad
bc45dc2b
3c8b533d
3c926134
bbfe36e5
3ab73242
3c5ec327
bc024a05
3b451e90
3c603f06
3c7408dc
3c028c46
3c9e7c7c
bc96a317
bc6c044b
3b94a4db
bc481611
3c63ff8a
bc719c06
3be5cb99
bc7d3fb0
3c4fc545
bc94f287
3be777cf
3c11fe67
3b5f0d4e
ba2089df
bc855c2c
bc871d16
3c819e9c
3c4bb635
3c70730e
3c081f84
bca7b29c
3c122ef9
3c93ba73
3c5c9b12
bcb24ecd
3c1e7229
3b0e5b00
3ac1c14d
3c5d3162
3b0f3161
bc9b55f6
bc4e0d81
bbb8c0c4
3bb3e0e7
bc8c5f41
bc1609e1
3b3b5e29
bbbe8a09
bc12726f
3c93b689
3c062988
bc8c0939
3ca0bb24
bc11792b
bc521c89
bca73dea
3cc27eca
bb5c2bf7
3c7e9e43
3c89e87d
bc261233
bc626a9f
3caaa4fb
bb97dec0
bc99d267
bc1e98f7
3c94d056
bc139838
39b5f68b
bc249077
3c954139
3b7bd0fe
bb87b2ce
bcb4f4c7
3b80daa0
3c371a5e
3b06963f
3ca5306a
bc25759a
bc0b6c7a
bc1031a3
3c97adf8
bcb82dda
bb960ae2
3c402e91
bca62638
3bb730c2
3c25bb7e
bcafec5a
3c0031f6
bca7382d
bc9371b3
3af73523
bca0ca26
bcc23741
3c90566d
bc43ca76
bc8ff6ff
3bf24786
3b29c310
bc356b6b
3c04b7f5
baae38da
bc95397f
3ccb3865
3c485efc
bc2a8110
3c992ce1
3baaaa50
3ba244b0
3bb6493b
397cbcff
3c1ac125
bc410afa
3bae8863
bbc82c7b
3b65c252
bb3a7850
bcb9581f
3c03ab29
bb8e7647
bcc0429f
3c93bbea
3c83f880
39dc9e8d
ba936f22
3bc78421
bca44b27
bab52272
3c482b1c
bc6f211a
3c07393c
3bfc0702
bc382a1a
3bdcf394
3bbda1f1
3bc36c37
3922923c
3c3079ed
39d63bc8
3c81f84b
ba59606a
bbf7bb00
3c172a19
bc02d87b
bca40e07
3ce0b9ca
3c405bb2
bc9920af
3abd1871
bb8c9f51
bcd261c9
3cd0e5f5
3c0898f3
bc4097d3
3bca6a67
bbbb618f
bb00a451
3c07a769
bc5b1165
3a862721
3c8180d7
3c38f967
bb61b31b
3cb6c517
bc438d04
bbbfe51b
3cd8151e
3c8aa1a7
bc5a5609
bbe72ac7
3c592f3d
3aecfc17
3c2164f2
bb9f8aca
bca40a77
bbb31495
3c9338dd
3aa90ba7
3c5f483c
3c0b8ece
3c5531b0
3c8604a6
bca22a05
3bba9973
bad51eab
3bc0fda8
bc97eec6
3cbbfe7e
3bfab349
3b98b6d9
3cbf43ea
baefc245
bc29911e
bc47f844
bbb9a8e3
3ca13c1f
bb3be698
bc938b55
bb9cbc95
bc83b9a5
bb5a7aa8
bc28a0c3
3c812317
3bcccd25
3c836e3c
3c89cbdd
3ca0f83c
bc8b8ac5
3c065219
bb9157f7
3c918b6c
3bb30b90
bc1974a8
3ba35d5d
bc185d73
3c9ff146
bb209a7b
3af8a486
3966975f
bc381524
bbaf02e9
bc1258b6
baee66a5
3c91b9d3
bb75dbba
ba9d6c62
bc92d3e1
bc44c96c
ba06be7e
3caa242a
3c5f3a7d
3c1aca73
b8ab565a
bc2b175d
3c54676e
3cae3423
3a45f40d
3beafad3
3987ab41
3bb157ab
bc4aae2f
394bb4f5
bb0b556f
3c1a50b0
bc2a08d4
3ca69c12
3c5e4b84
bbce74ff
3b070ed3
3c294e53
3bf8ff23
ba71b5ee
3c9e2f6e
bc452a05
3c7b9c65
39495fb0
3c6ff89a
3bec1a1c
3c115d8a
3c8560c0
3ca869c9
bc940341
3bbaebdc
3c7900ae
3c613c8d
3a72d166
bc781b83
3c817f85
ba7a7368
bc1577f5
bca8af46
bc3e998d
3c55a670
bc95081c
3cd20dbb
3b35758b
bc919ba0
3cd73707
3c8270cc
bc8ea457
3cda68cc
3c1a1a5d
bcba0f0b
bc0b538f
bc9558ce
3b033808
3c7b8838
bc5dc2ef
bc950ddb
3cc9c220
3b3e8feb
bb908bd8
3ba0be26
3c7b1234
bc6112d1
3c4c5799
3c831d6b
bc991178
3cb3e0ce
bbfac3d0
bce005da
3cc371e1
bca3f2c7
3bfe5559
3bfa1eb3
bc0d8394
bcb46b79
3b2e612f
380dc479
bbe5a502
3cc1815a
3acd2026
3bd19cef
3bf68f31
bba68728
3c174312
3c4c429c
3bfb7335
bbd97633
3cafa23b
bb5dbe77
3b985ddf
3c1e205f
bc80f0bb
bcd611fe
baa2c3d4
b8a6eeed
ba270093
3cab9d49
bc88810c
bcbfbb19
bae985fc
3c31f162
3b123175
3cca3005
bc252054
3a841988
3ca1cf69
bbd2711e
bc0295c8
3c2ae9e9
bc0b8ecd
3c7334bf
bbf0937e
bc04a8f0
bc6ebb42
bc1ff6c0
bc6682b7
38a6838d
ba4be445
bc276010
bba4e7e5
bac41507
3823288f
3bde6975
bb989251
3c99e475
bc18c133
3c913d1e
3c75db53
ba412fad
3cc0fc60
bb6d611b
3c8a86ad
3c055bb5
3c1248e4
bc3069a1
3cc71bc4
bac751c1
3c0576ca
3cc1bcae
bc04db1e
bbbc09cf
3b3a3b29
bc56df22
bc1d48ff
bb6e74d3
bcaf8aa9
bc454ee0
3bc1c052
3c651e1c
3c9d0364
ba510812
bc4cec60
3c580c88
3c8aa5fa
3c8c4088
bbca2d17
3c239e5b
ba28b766
3c854a61
bb996e12
bc8bc7f7
bc8b05d4
3c7d85da
bc7c93c1
3c5474cc
3c9d00d0
bc43295d
3c7a7e0c
3c2051cc
bc4e6ab8
bc5b3a7a
bc331f6d
3c8decad
3bd41e88
3c4d74a6
bc3c4617
3bdea8d8
bb5e353f
3a9868fe
bc1d743b
3bf789bc
3c9f283b
3c302efa
3bc53e56
bbeab75b
bc5aa7ab
3cb5849d
bc1cbdec
bcb82808
bc8f4cbd
3bf87395
bc8b43fd
bc265d7d
bc6ee575
3c8bb4c5
bc9575ec
3bdee40d
bca31228
3caca28e
3c8dfb45
bc128ee0
bb093c10
3c675b67
bb8e5837
3b9109eb
bc99ef3b
bc390e64
3b9d71e7
3bbc2e78
3b5d3bb8
b9d4abad
bca882b4
3c9f7d1e
bbc4ec1d
3b0bf7b0
3b9a2f7b
3c84411b
bc98b666
ba291096
bc647908
bbc68a68
bbf0f529
3c81d510
baccf816
bc8bb865
3c141810
3c36f88a
bb9875b6
3cb10f50
bc9e7af6
3bb9fea3
3c5d4c07
3c77dc29
3c3e94c7
3c34fb12
bada08b9
3c29d230
3cd0ed67
3c2bc6b3
bc3cd3f5
bbecfcc3
bc189c8c
bc62909f
3ca1aa2e
bc157d1c
3c913370
3bbe64bb
3ba4ff2d
bc8fd608
3b9122aa
bc47eb38
bc215907
3c0e530d
bcaf5f50
3c8cf3dc
3afa4353
3b8f756f
bbf49fdf
3c1165dd
3b4eff8f
bb215f20
bc50edfc
3bcbf3b2
bb2a7937
bbf137de
3be6637d
bcb59279
3bbdfcea
bb571c35
bca95df5
3c7132a0
3b737b6b
3c376383
3cdb041d
3c48800f
bbe3213a
39c3a5a0
39e3ee9f
3c0d1cab
3b78db7c
bc61b001
3c5e3de8
bc04a08e
bc3dd65a
bb378075
bbb306de
3c08ecc8
3bc472cc
3bd49253
bcaff948
bc9f3df1
bc3600c6
3a1e452e
bc2461a0
bb1858d6
3c5a2ae2
bbe321a5
3cbb6019
bbb1dd4e
bcb9dc39
bbc16a97
3bafd070
3c4c3a6e
3b0176b8
bca8cf3a
bbb81183
3c97c23b
bc7b5e23
3c509131
3a93ba3a
3c53c74d
3c1fe495
3cd646a6
38f4b6ee
bc1cda9b
3c8e07ab
bc14d47f
3c7c919d
bc511728
3b5e3cb7
3b9f732d
bc3b3a88
3c5fd70d
bc731992
bbe531eb
ba4bf4fa
3bed8f8c
3cb4b405
3bda85a1
3c9aeffc
bbb152c0
3c8aa7df
bbdc0abc
bbb2bc53
3c9762c7
3c7fbd8b
3cc568aa
3c4b31cb
3b97a2b4
3c1ca62c
bbbce72d
3bde0426
3cd61ebf
3bb699a3
3c5e5cfb
bc4a619f
3c295a82
3c6edb70
3cbc499a
3b214e66
babf830d
3a987c52
3c15c04a
bbec390e
3cc2026b
bc0fb203
bc1f59c5
3bb35abc
bc83ab80
3c2b5b4f
bbcf9ec8
3c902738
3c4e13e2
3c23a8a5
b7848a3e
3c30a238
3cb1f654
bba49f89
bc06b3fb
3c518178
bc6bb3a9
3b047c0c
3c22a1d0
bbf61d82
bca8c752
3cb2b416
bbef6d4b
bc85096b
bb43cb58
bbb80ab6
3c154f08
3ba7e5cf
baf79124
bc9836cc
bb4bd15c
bb067e81
bcac5cca
bc0e589a
bc4bab64
bb153293
3b381726
bae7d556
3c41289f
3b12e433
bc447441
bc8b0433
3c942e92
b9d2ebcb
bb0dc294
bbe830fb
3b614afc
3b39c30d
baecf62f
bc955779
bc4abfd4
3c1cb521
bc89ec3e
3c93572c
3cb89b35
3c68eae2
3bbb68d9
bb906621
bc19511c
3c87e9a6
3b5a18ea
3b9bcdc7
bc898493
3c45dc25
bc2041c3
bc1d9927
b9d116d6
bc82426d
bc9730d7
3cc50cb6
3c6b0066
3b4838ee
3a3371d4
bb964be5
bc3dd0c4
3c01cbf0
bc15f0bf
bca9e230
3c568ccb
3b12fc90
bb98ab32
bc2c91f3
3c34cc2d
bb4f1ca2
3c9dc859
3c070550
3b6ea696
3c3efe1d
3ba3154e
3aeac6a2
bc0e57d2
3c85cdb8
bb9dc655
3c8c4a9c
3c0851ee
3bc87c79
3bd17cc8
bb11105a
babf2748
3cc884e8
3c38783d
39a09d9a
3bb5726f
bc587262
bca1efa7
bbf549bd
bb179d89
bcccd931
3c0de6d9
ba8db7fe
bc6f95f1
ba3dbb40
bb906a1f
bc8583bd
3cd443a3
3acae462
bad28f8d
3c2aec2a
bba67bb5
bc23c0a2
3ce21be5
bbe5542d
bcc3e6e1
bbe4e9da
3b1fc810
bc440d62
3cbfe35b
bc812267
3c34cfe5
3c2efa8f
bc8c5236
bce159e7
3c1a8631
3bb8ce3d
3bb95909
bc69fa82
3b34c958
bc26d2a6
3bd58b13
3c76ebae
bc99072c
3be390f2
bc029d79
bc3ae0e9
b905a820
ba89b985
bca8460c
bc6126ae
3bfc489b
bc65215a
bbb05ffa
bc04b036
3c528137
bc51f26f
bc39b21d
bb9623c1
3b15cd4f
3c84a101
ba9ef195
3c63a2fa
bbe5007a
bcad8eba
3cc5e551
3b47164c
3c295dbd
3ca65868
3b7f83de
bc6f3b7d
bb84e128
bb0426d6
3bdd044a
3ca044b9
bc431220
bb4e2d6c
bc6e1f43
bbc50aae
bc15d944
bc22ab50
bb875cc7
bc82279e
3c8a92dc
bb076af6
39da11da
3ac02962
bc3f7da7
3c6fae31
bc3a90f8
3bc71582
bbfb115d
3b2b0b47
bbd0d194
3c3038f6
3cba3205
bc8d115c
b99c94ee
3b1a0f71
3c41e7d5
bc815076
bc73b4fd
3c9ad59c
bb868af4
3b649dad
bbb3b440
3c99aa05
bbe4f764
3c047777
bc8e8e86
bc4b869f
bb8608bb
3c916389
bc833daf
bb917bd8
3c9a03d2
3cbcedb0
bbcc1d70
bb675655
3c01fcff
bc641d39
3c4b14c8
3c8e9312
bc441eab
bb8eed3f
ba468b73
3c16a9bc
bc82f2fd
bc9e03a3
bbd04d8f
bca47649
bbc9e8e8
3c95ad26
bc46c931
3bc0ed4e
bc44b22c
bca5f7b0
baa36449
3bb33dc1
3ac4b57c
bbf4067a
3ca53dce
3c122d01
3cbdce1d
3b9b03dd
bbddf92d
bc2630e4
bc7a4e0e
3a824550
3c2597ce
3c8d16c7
bb8450a7
3b3ce2b0
bb5ba4ce
bc21038b
3b911f80
bbdb73d7
3b0f6796
3c151f0c
3ba339cc
b9f1e900
bc703cc3
bc81bffc
3c92590d
3cbf38f6
bc053d1c
bca1635c
3c4ef8b0
bc70503c
bbfc73bb
3cbbb847
bc816b3e
3c82ef07
bb08761b
3c6a310e
bc3a1855
3c3f88e9
bc51d146
3948429c
3c9beb9b
3a013516
bca083cf
bba9341b
bc6c3e0f
bc3e2a55
bb436a09
bbeeb723
3c6e4554
3c2a0c55
bb7db9dd
bc859909
bac49433
3bbb16c6
bc91136d
3cbf8351
3c35f1e9
3c3b5cc8
3cb2c1e0
bca60d1e
bca6c481
b8c01960
bc812809
bcc0c2eb
bc40fc53
bca0a264
bc164574
bb037089
3c878c2f
bcc454c9
3c664c9a
3bfb06b6
ba72d5a0
3c409838
3c13c6b9
bc24732b
3ad44795
3c3e7b04
bc6e3ab9
3afc0c55
3bbf6037
bc32ea79
bc2b8cee
bc1fe05e
3c66d6c0
bbe1246e
3c7c6d51
3ac94c3a
3c81871b
3bb2b654
3afe3981
3c58c169
bc31fd3c
39d599a5
bc7a4122
bc8ed298
ba5298a5
bba4a992
bb88795a
bcb545aa
3c84e7ea
bac3d13f
bcac4948
3c8e4228
bca27058
bc011797
3cbf543d
bc609385
bc713f56
3c41d301
bc6c489a
bc813bc1
3bead69d
3c81b347
bcc75183
3c5d9495
ba939639
3c4955fd
3bdac526
3c9352ac
bc17b773
bbc729b5
bbb27867
39f152cf
3c412059
bc3c9df7
3c797122
bc2db406
3c2dea21
bcb2a1dc
bbf3c692
3c361cec
bc57aec5
3c435087
bc518640
bc68755a
bc0e8811
bc81f786
3c551864
3c5a2683
bc0b01f8
bb1d9280
3bbb3f39
b8987684
bba5d0bd
bc792b03
bc0b4bb9
bc5b50f4
bc35977e
3c08dc02
3bfabb23
3b82b6ce
3c2f778f
bc151714
bc7aa877
3ca2b89c
bc49d296
bc6c2509
3bd3c8b5
3bc4e7f8
bc86bff0
bc6611b9
3ba23512
3ca30e9d
3c645671
bc934ede
3bbf3a0c
3b8a082e
bc8dc763
bacbca66
bc6a454d
3c9560d3
3b534ada
bc791e6d
bcba17ec
3c53c300
bc7265db
bbbf975e
3b818458
bcaa7ed4
bbf788ba
bc28764c
bc84871b
3a4b5293
3a397b25
3c35f1b4
bb423a2a
bc8d0ff8
bc27e6c0
3c21e723
3cb85b8d
bc177437
3c23efb9
bb6f03d5
3b1265ef
bcb431ba
3c891c46
bbeea22e
3c20a71b
3bf30166
3ca1106e
bb627b98
3a54f760
3be7aece
ba2490bb
39143c2f
3c48e3d3
3bb706cc
3bb54afd
3c3e168e
bc91a7be
bc5911a1
bc5ec6f9
bc7bf3fb
3cb2b6ea
bc614a28
bbe6b75a
3c4f8297
bc6762ba
3b82096b
bc0b5c2c
3b83c71f
bb0c9cd8
3c7a5e2c
bbe193ae
3bdd07e3
3cce427e
bc9ceed6
3c0ea220
3b1ab698
bc89a522
bb96cf0d
3cb1fbc9
3b182b00
bca156af
bc1c3ccd
3c883e12
bc33e3f8
3bb93f20
3c61fe62
b8c04f10
3c54e2bb
ba13429b
3c3bd032
bb3edf6c
bcbb960f
3bfa9d24
3c259e6b
3c4caaf9
3c24593d
bc38e6da
3b11e54e
3c1be290
bc50425b
3c2cf43b
bc28274b
3c71f305
3a6d81b4
bcbde9b8
bb88b56a
bb8e73d4
bc3c0c5f
bc326126
3b398c5c
bb02581f
3c818282
3c9db3da
3b5a5eca
3ca60827
3c838886
bcab38c7
badcbdb9
3bbd726d
3bede36c
3c31d96b
3b4dcd39
3a7e3c64
bc4c39fc
bbbe5aa0
bc62d88a
3a98d306
bb763a6f
3c24f044
3a8e65c5
3c196ff2
bc2387d4
bc11a4c4
3af8bfb4
3c1c22a7
bbef6aaf
bbbe141a
3c7acef1
3b3eb5b3
bc706fa8
bc6b5eb3
3bc8d27d
3c4bce8c
bc43dcc8
3ca68ead
3c2cd414
3c4c9beb
3c9ed4bc
3c94c04c
bba29497
3c55a5d2
bc211895
3b10cc9b
3c4cf336
bcc43c39
bbd7b9b7
3c95e543
bb96277d
3bcc9c4a
bc31f704
bc899f82
3c58de66
3c8bd37e
bca95266
bbb035d3
3cba46af
3c52c702
bca6a886
3b70e505
bc272987
3c22e3b7
3c2b3e7c
399351f9
bca39ad9
3c94299e
bb0f3f97
bc53401b
3cbf745b
3c898261
bc47d9b8
3ba97eb0
ba0b2902
bb37f2a4
bc45b66f
bc8b97b5
3a344690
bbcc177b
3c4296b5
bc5ae7e7
bb8515e5
ba754545
bc6b590a
bb7fe673
3b0e7aa4
baa7d7e5
3c9da66c
3c2856b5
3c0d6acf
3c8c59fc
3ba30076
3c8d9884
bc9012b3
bc8e802c
bcb78e9e
bb9b4002
bc1283ec
3c596252
bc6b2c22
bb525788
3c1ab51f
bc8e793c
bca05293
bca50743
bc594722
3c890304
bc987023
3a80b7f6
3b21157e
ba342298
3c252533
bca10c2a
3c1d9ac6
bc61ca91
bc90862d
bcb98d40
3c6b8eb9
3b88fdb7
bbf98b06
3c77a162
bc9df656
bc98b9da
bc48fee3
bb1d7b8d
3bb33cf9
3c940421
3c1732b3
3c1cd7b9
3aa21547
3c3c43d0
3b328893
bc5a52af
3c982903
3a231123
3cc59800
bc90d154
bb91cec8
3c97dd9f
b9c3c45d
bc22e26a
3cc10ffb
3b1e9a57
bcb7c5f0
3c5b42c7
bacb5644
3c8eb609
bb538357
bc0d36ba
bca4fdd8
3cbf33b0
bbca0d26
bc18f8d6
3c061b18
bcaaf09b
b9768e4d
3c34da0b
bc7ef723
bb3f22cd
bc3e8c72
bc940c48
bc4ea142
bc5be2c9
bca0eb6f
3bf5265d
bc2aff68
bc94fdc8
3c116762
3c4944ef
bc657e7e
bc390ed3
3c281d0b
3c0203d0
bb8e2a1a
bb475cff
bc2bd0e5
bb3ce371
3ccfda86
bbc0b5f5
3c231fd4
3b0c93a2
3c953359
bc47530b
bb324f3b
3c49dd43
bc8ce626
bc4d29d4
bb2a4586
3c795d39
bb882162
bb96895e
3b2425cb
3cc22cc9
3c7914f2
bc45b09b
3b73f58a
bb029786
bbd34fab
baf384d9
3b6cadb5
bc6751d8
3b4da43c
3c8bc1ac
bccf2287
3b2ae5d4
bb664ed8
bbbcfe1a
b7a6182d
bcb59d68
bca7b99f
b9ebf82e
bc952245
3c690354
3c95bb7a
bbbb9dc3
bc9aec14
3c135eee
3c14f082
bc1571c4
3c83d2d7
3c7a86fd
3b8b0d2f
bc144491
bc06dcd4
bb83d77d
3bd8f381
3c08ebad
bc7acba6
3b605a37
bc80f4c2
3c2b242d
3ba7ae72
3c3e3137
3beada29
3c498f50
3c26d9d7
3b062c99
3c59c2d3
3c058d02
bc88537a
bc0a208c
bc6dd38d
bc47ee76
3c3d3cdb
3c708418
ba8662c1
bc2566c8
3bc917bf
3b28a4b6
3cb2b244
bc94ea62
3ba0ce0e
3b1768ec
bc9f1006
3c678edf
ba107c20
3c602204
3bf25af8
3be9c2ec
3bb6047a
bc39806a
bac308dc
3b2af1f5
3be3add4
bb47b572
3b429ead
3c432677
ba33717e
3c8c6998
3bb05c92
bc4e318a
3c2a4293
3b77ab5d
bb82a05f
3c85b205
bb8d545a
3c7d7495
38ca600b
bc9958d5
3c2af043
bc198779
bba5e750
bc48071e
3aa3ebbe
3c03f45c
3c966921
bca099aa
bbcff812
3c3a25bc
bc51b735
bc52588b
3c735222
bc8f9756
bc6bf9b6
3c2e7c48
bc0a6103
bc76fde3
bc6362e4
bb1f3608
ba39c7b7
bbffe369
bc9ecbbd
3c535359
3c162f31
bc44c60b
3b54a64b
3be5a466
bca1eb2b
bc791229
bba7f143
bc636312
bcb8e6c7
3bbdb18d
3c59f0ae
bb6d037d
bc36b99f
3c0e8986
bc76a4d9
3b788341
bcaa1f74
3b1794b2
bc618476
3c34c7cc
bb867e2d
3b2863de
3aad69b0
bbc55ab5
3ca91636
b9c1a23b
3c3ab7f2
bbcfdaf6
3a2c79bd
bb955846
3c2efc17
bca7b5a0
bc41fd36
bbbbddff
bc86f11f
bbd6abb8
3cb8e1f7
3be5f8b8
bc58fbd1
3b98c726
bc00381a
3c368b4a
3b8dafa3
3a3ea7bd
3b4051f3
3c3a2d4a
3afdbb24
bcb2967f
3c70bd4b
bc503102
3c66e3cd
3c3b207a
3c44caac
3b4c7b6e
bbddea29
3c8ff88a
3c08fa07
3b9d9ff7
bc2a854d
bc68db7d
3cdf6369
3c95cfd1
bcb707b3
bb7fa142
bb4dc23c
3b15adc9
3cdca713
3b6ef617
bcba03f8
bc05f9e9
bc8ceebc
3c13f7f2
3cc1afd2
bc177819
ba376cad
3cbff4d8
bca57b2f
3a91aafd
3cc79bc1
bb754664
bb535342
bc2dd2c3
3c7d2d0b
bc8ef855
3c375c1d
3c917322
bcb74671
bb8c0319
3b71069c
bc23ac34
3c0c93cc
bc4e8a6f
bc6e8b29
3cb14fa1
3bd69cf2
3c0eb928
bc3dc64c
bb0bbcc4
bb9160f7
bc3c5982
bc6c7485
bc838f62
bbcd9607
bb3b009d
3c04577d
3c4b1634
bc226ed5
bc52f249
3a002997
bb9639c8
bc9fd824
3ba3b95c
bc76dde7
bb8bb87b
3c7f01df
bcb5ec3b
bc45898b
3cc3ddfb
bca419f3
bc361cae
bc1c948a
bc60ac21
3a04b06d
3c51f984
3c1f5796
bbc1caef
bc755535
bca69ba1
3bdcf433
bae63279
bc9afe6e
bc7879f9
3ccc2963
bb89d01c
bc587c6d
3c10ef08
bca3aed5
bc2cefc6
3b9d78ce
bc61932f
bc972322
bba31561
bc71331c
3b729b28
3c564416
3bc6d563
3c98133a
3c1e6abe
bc81faa2
bc77db6b
ba070201
bb2d942b
3c6852b2
3b567619
3c05d6a1
3b81403a
3a0744c7
bcb1b646
bcba0348
bc76b780
3c221215
3bbc43a2
3cb22e8e
bc305388
bc14c749
bbb9db9b
bbc72d75
3c2c91ee
bb8b87ba
3b866459
bc884f2e
bc8b90c5
bc1f11f5
bbf051f1
3c6c04b0
3c9b776d
3c286ea7
3b864740
bc8b7346
3ba4d8d5
3c610402
3c91475f
3c650057
3b95fec7
3b61a6a4
bcaca638
bbfbf082
bc85c20c
3c3d1db0
bbbed3e1
bc8b0297
bcb7eb7e
bc3dfa83
3bcbe232
3c08a413
3af7dd24
3bc54d72
ba1cd9c9
3a884160
bb0e6a96
bb12a563
3c57601a
3b26871b
ba5c247b
3cc1db61
bbf59696
3c11707e
bc8538f4
bc1adeb3
bca423be
3b4a9e5f
bb17f743
bc08af76
3c88851d
bc585ba4
bb9c3d00
3cd0996e
bbfc5eeb
ba95174b
3b98b2f9
3b95adbe
bc2d94d7
bb980a50
bc14aa5a
3c8fa9fd
bc477f09
bc8ee746
bcb5f295
bc352138
bb3fa468
386cfa6a
3c81a89f
3ca15579
bc34305b
3bf49d09
3ba02a8d
3aa8980f
3c1d486a
b776a005
3a3e0ddc
3c4f8546
3b435aa2
3c59bdb9
3bb595b9
3ba199f2
bca3c2d3
3cbb7cc6
3c7a5767
bb94d741
3a7031c6
3c45d82d
bc620e3c
38d03f48
bbce1a19
ba0bd880
3c7e349a
bc84bcc1
bc8ea205
ba16a22a
3b3fa108
bbc4e892
bbd0de61
baeabbba
bb3a39de
bc530d10
3b9a1688
3c33fb13
3bd81465
ba003522
3bd3cc86
3cb836e5
3ca21823
bba1a134
3c9847e9
bc6e7375
3bf7794f
3c4a0d48
3b17a7db
3c8a511b
bc336e6e
bc8adbf0
3c60ac00
3c6c2e32
ba25194c
bb710fab
3b1436fc
bca023d1
bbb9581f
3c931bea
bc928ec1
3c2a9283
bc13d8a4
ba5efef6
bbdafacd
bb66e602
3be26bd9
bc372d3a
3c8491fc
3bcd1c82
bcbccfc8
bbc96cf5
bc561bff
3aa9acc0
baaca611
bc0b3512
bcade125
bbd6b800
bc71c06d
3c1e8919
bc02bd35
bca777b9
bac2ced0
3c6b129c
bca5ea2c
bcc879b8
3c8b3aac
3c4c62eb
bbcf0503
bc280d38
3ab78f3d
3b7ae915
baad7d49
bc112d15
3c30b4a8
3c954eee
bc85fd42
bacca8bb
3ca262c4
bcb0d60a
3b18766e
bb8e07f6
bc848ef1
bcc1eb55
bbca0941
bca4e841
3b261d3e
bc05d994
3c443f47
bc4db166
3b73f2b8
3c2bfef2
3c3c6da9
3b3a4def
3c3457ab
3a22cfc6
3ca6db60
bac7dfe4
bc80be71
bbe915f9
bb9659ad
3c4f307c
3c30cb76
bc99a6dc
bcb5ca0d
3caf0107
3c2f0322
bc281ce3
bc0d6079
bbafb02b
bc0587e7
3c626010
bc126d6a
bb433dcb
bc1da943
3b978a40
bc995d4f
3bbfcbdb
3b7191f1
3ca0bb9d
bc4deddc
bc9dec3a
bbde073f
baa34923
3bcc0a2f
3c8e33cc
3b0dc9f1
3be5987e
bc511fef
3c808d82
3c781d86
bc2d40d2
bc82c299
3b8a3d4e
bc99c8f9
3c5d2aa3
baf1bd94
3a0ba29c
bbd822a3
3bd78e18
3c03fb0c
3b2d8aac
3c04bb26
3ab33609
bb86d259
bc86fc1f
3aadbc77
bc8e12f2
3c83de41
bac599ca
3c2bbf2f
bc8b6b70
3b2a9229
bc178480
3c7563a5
3b058b6b
39e7af9f
38473abd
bc9e2f72
3cae0bb2
3c9d36ba
3c17a777
bbe069c2
3ca72815
bb9b9152
3bbcfc53
3c3bc40c
ba08006a
ba289865
3bcc6744
3c49f6ef
3cc08e4d
bc4e5818
3c8dbaf5
ba2be794
3c4a3c2c
3bb5e4f0
3c3b5621
3c7c0180
3c2e9bc5
3ba684a6
3b987584
bbaac97a
bc321eb6
3ab5ad7f
bca6940e
3c8d13cc
3b4f464a
3c82a788
3c54a3f9
3c91607c
bc4f3c33
bc4894da
bc53805d
bb9baac5
bc065713
3bc2ca66
bbf82438
3ccccf8e
bc0c78b3
3a25d5bd
bbb6eb6f
3c073b32
3c74726d
bc34a8f9
3baff5ed
bc5e6506
3c7cd7ae
3c0dedd8
bc3cb028
3cd6fe8d
bbd9d133
3c64b474
bb465ee8
bb3017d8
bca17216
3c2b0132
bc5e6a9b
3c202dd6
3c3d8645
bc26029a
bcaf1c65
bc0403e7
3ae56e37
bc894565
3c551e93
3c59d615
bc0a3049
3b368eaa
bb2ecd59
bbfbaa82
3a5ffd70
bb87d56e
bc829b08
3c897464
3af386e5
3c00245e
3ce04d07
bc791005
bbdc1088
b94efc16
bb17e16f
bca45e6f
3cbbffc8
bc792ef8
3c89fb8a
3c9f60e8
3c1f7bd7
bcb3f102
3beac315
bb1bc934
bc353cf4
bc613b10
3c240707
3b250863
bc2e8ac5
3c82f8f9
3c4060b4
3ca38762
bb9805a8
bc1fddfd
3ca32de0
bc83b991
bc8bc371
3b6d7d20
3c265967
3b073b5e
3c34f678
bb767176
3ba70f14
3ca25dd2
3c94ade4
bcba17a5
bc86ca5c
3c36637e
bc9fde10
3cd036e2
bc17381b
397ed59a
bc33cb45
3be9c5a8
bb77abab
3ab58b4e
bc082b34
bb0c1dc1
3c65ae9d
3c5eb673
3c528e2a
bb1534e4
bbbf9fb1
3bae7755
3cb4c9cf
bca0db42
3b83ef21
3cb9841e
3c56be72
bc8f9d26
bc2d88e0
3ba970c1
3c144e2c
3ca9b3a2
bc2fbc41
bca101bf
3bcc4284
bc0a7b66
3c983055
3c47a8ea
bca177fc
bcb6883c
3ba0f5b1
3bc8e86f
3c8814e0
3c8bd44d
3c91ac49
3b58381d
3c6c21a1
3b6214bb
3c3d13ea
3b8f9ff1
ba30dd25
bc49d77b
bc3c3240
bb8359b8
3c56008b
3ad91cd6
3c8ec57f
3b9a9aa9
3c977e93
3c15f3d5
3c3ab325
3c2bbf1b
3c0b6fa1
bca99c44
bb0b59aa
3c272e39
3a90964c
b82038f0
bc992d9c
bbe183b3
3b8307e8
3c274f5a
ba674744
bc6d12bd
bc25e116
bc6150b2
3ac7c175
bc660dd8
bc89766b
bc2881f8
b9938abf
bcb652a8
3c196abb
3c0c9a6e
3c3ed778
bbe59f25
3c862e8d
bc81f5c7
bc235944
bb6bf768
bc719ecf
3b93c184
3c730b14
bc576a4b
3ca18041
3c978bf2
b9b361ca
bb10885f
3bc12564
bcb418cf
3b8bb4f5
3c5c09e3
3ba539ab
3c62e852
bbd0eed4
bb15cf97
3b8d7554
3ad5bfcc
3b5af4a5
bb6a2a51
3c076231
ba9f5d86
bb7b77df
bc0e3c71
bcbc9292
bc767580
bc484f42
3bb5ee48
3ccf136d
bcb4118f
bc5e5483
3c9b4b2b
bc9c31a2
bbafbbba
3cc477e1
bc30b087
bb7eb03d
3c7c9456
bc6e5b5c
3b3531d9
bb8fd836
bb51d47c
bb771438
b9b40500
bc697f83
bcb9340a
bbcfc052
3c94ec58
bc8aa124
3b7be86a
3c8d719a
3b079df7
bb529b88
bc58292b
bb8c6520
3c9388e4
3c6f2af0
bcc210fa
3c854d6d
bbb9ddc5
bbe36fad
bc54f52f
3ba97452
bbb18ba9
3c1477b1
bc410691
bc863e5a
bc0468b5
bc6fa182
3c7e3cb4
bbbfa4c8
3be9f023
3b567bab
bbdbbeff
bc996f7e
bc83d29a
b81c7292
bca708e1
3bad8194
3c4691b5
bc431acb
bc82c1d1
394ba744
bcbb1aa8
bc754336
bc0d1f17
3bd87ef4
3c18894d
bc7abc9b
3ab25ee2
bac4b153
39d6a94d
bb694cba
bc5554ff
bbf593ad
3c25c1b9
3c857366
3cab5ba2
3a66d731
3c4379a2
3c452ce6
bbbb3dca
bc8b6a0b
bc5eba18
bc36456f
bcbfc0da
3cc278ce
3aaa727c
bc1e0c1a
3bf086f1
bc14cb3c
3c71c8ed
3c0f6f9e
bc6d21e4
bc845f19
3c7644ea
bc46879a
bad3c69a
3c8f7fe8
3c98df37
bbe6a216
3c3d682a
bc3b5e33
bcae00a2
3ad7dad0
3c079b01
bbfeae89
bc17a101
bc66ffe5
3b90dc53
3c58f819
3b67b9c5
3c55fde1
bbeba234
3c9f53a1
bc5caff8
bc6cf2dd
bb2dcf13
bc28664a
bba0275b
3c4f7fea
bb1b7334
3c4acafa
bc4105d2
3be3c763
bc8ece3c
bc277943
3c8a8f14
3c9f5a38
b99a37e0
bc8482f8
3c827677
bc4ec69e
bc608f85
bc4ae800
bcb5081b
3c8dd3eb
3c39eef4
3c81ff56
bc0e3153
3cbabe1d
3c802da4
3c1f1048
3b81f3f2
3b6eb35a
bc093222
3c34c0c2
3bb001cc
3bb675eb
bc94d8ea
3bf0007f
bc604b46
3cb100c5
bb34a908
3c591b6c
3c85272b
bc543107
3ba8f3a1
3b5adb4b
3acbec4a
bc77012c
b9e6b592
3c21cf3e
3b9cfa59
3ca3e4dd
3b17e1af
3c4dd3b7
3c0c8fff
bc7d5376
3c75e212
3c4810a2
bc3d8ed8
bc450ff9
3ad3378f
3c455e62
3b08d710
3cbbf8a4
bbdbd64f
bc703dab
3cac98d5
bcabf820
bcbcc5d7
3cc8515a
3c36f2d0
bcbae2c1
bc420fe8
3c5caf36
bcb83ee1
b93da6d9
bbfe1d38
bb966656
bc59ccc7
3ba0fcc1
3c67c94e
bbade1c1
3c93a303
bb239426
bc1c4395
3c6f33e1
bc39aca7
bc5f9b87
3bd78a13
bc11f18a
3c83d528
3ca166be
bc77b134
3c95dfe6
3c165205
bc02a589
3c5bef0f
bcb12c3b
ba258ced
3cb49001
bc546a04
bc1bf20e
3ba7f2b4
bc2d7d3c
3be956eb
bc38ba0d
bc297ac9
bbe2de1a
bc0a6140
bb5b4b4d
3c0e30c2
3cd22b3b
bb9357b6
b91612c0
3c4d67c4
3bb3d793
bc50c5ec
3c0b3e1b
bc7ceb52
bcccf2e3
3bf94804
bc581e6c
3b240706
3cadff30
bc1308ad
b968b03e
bc32cb9a
bc58cfd1
3bc3f178
3cdafffe
bc6b1b67
bbbc5be2
bc69cbdd
3c23c9dd
3a0d23bf
3ccf8ba5
bc6e77b0
3b06fa1f
bc2ac21a
bbde6fb7
bccd728c
3ba8ac94
3bf577e9
3beea3a4
bc151395
3c3599ae
bc22c683
3baf6275
bc478a6e
bca34364
3adfec7e
3c12d5c0
3c3c55a5
3c3663b8
bbe02a11
3c8b9559
3be83bad
bbacb347
3aff496e
3ac9e3dc
bc119902
bc716d92
bc081d2d
3bbae0af
b9723671
3ca249e1
3c1defdf
bbbb2a50
3b4947b2
3c18b503
bc5ae745
3c258355
3c4fabb3
3c519414
3a87cb77
bb3a2af4
bcb01285
3c9bcfab
bc121ab8
bc604a0f
3c269cbf
bbdfb0e8
bc38c74f
bc43f0a7
3c24b0ea
bb14ef37
3c8811c5
3ba43dde
bc0a0356
bb1f0518
bc243897
3c877ae4
3b84df67
bc932964
3c133c31
bc6ade6d
bbbbe00b
39dd3095
bc5e206a
3c155353
3c889aed
bc11a641
ba1fa851
37b531a6
3bb4352f
baa39da1
bc2436cd
38217b0f
bca470f7
bb30ff85
ba6488d6
3c11f5ce
3b57138d
3a875fec
bbd79e51
ba1c9272
bbcf25cb
bc7561d2
bbfef978
3a0faf71
3c317d34
3c6888f0
bc77fa63
3c320254
3c5a83ba
3a18a256
bc87d7df
bc183def
bc1fbc7b
3c80db04
bc6771fb
3c795dbd
3b7f772a
3ba7c828
3b307409
3c6950ca
bcb10add
bb545a0a
bc9ddde7
bc44202e
bba45129
3a2cc52c
3c7d4de9
bb912521
bc690195
3c5a0019
bc78054f
bb64a5a0
3c8c4523
b7c7a61c
3b061be8
b7f34507
baaecf2d
bb962fc9
bca1335c
3c00635e
bca810d8
3b86e7c2
3cc716f0
bb1f59ef
bb4b9c7a
3a64a325
3b8bef39
bcad3468
bc0065d6
bc9da931
b83318c7
3c4cc253
ba9cb2ff
3c12e9f6
bc2869b1
bbd57846
bbf44844
3af41c8c
bc1c9ee8
bc4f06b0
bab7efc6
bc4dbe96
3c152d93
3c9be107
3c06c7fe
bb324da3
3ca93ae4
3c62dab1
bbe23194
3cc1d3c4
bba25700
3a76c758
bb9d65f9
bc882cc5
bc9faff0
baa93c57
bb2fba17
bc496156
3cdee9f8
3c09e54b
bb4eca9c
3c912315
3bb2760c
bc95f444
3c82108f
bc4f851d
bbbbfcaa
3c43806a
3c69ff1f
bc8e0001
3c92c2cd
ba287a77
bb452bd5
3b9c6f93
bb16a9f2
3bc32e2a
3cd08c48
3bbba324
bb04ab5c
3c29d068
3c27691c
3c0a291f
3c5acea8
3c44b070
bc807fa5
3b0f6fe8
bcb1937b
ba2c337a
3c18fa26
bc711e0e
3c3299c3
bbe8e18b
bc931749
bc527437
bbcc1f80
bbbf49d3
bc6fad3f
bc349c5e
bc919e62
bc56a0f0
3ca33b53
bc9fd458
ba81e6b9
3c2ce4b0
baa309ec
bcbfaae3
37fc7f42
bb9721b6
3c50e9ce
bb1ccc1c
bcaa9c14
3aa8423a
bc2fe936
3b6a87c9
3c871baa
3cac043b
bc112324
bb588744
bb5a2a7b
bca26504
bca64faf
3c87674d
bbd3662f
3beabe18
3a225ff8
3c9080b8
bc36ba11
3b0f8037
bb68bfdd
bc35916c
ba9439ef
bc250de1
bc22c0c1
3a8a65ec
3baa85a5
bb80dd28
bc383490
bcb7826e
baaf2061
bb0caa91
bc194375
bc0a6976
3c715dca
bc6e7a38
3c7a3df1
3c974317
b910b1f2
3c426aa4
3c8ee0df
bbb4a154
bc7f60e5
bc2a74d0
bcabe891
3c97a441
3c8a9ccd
bcb2cd57
bb992411
bc7db372
bacede75
3c9110df
3ac17d16
bbc5d3ce
3bb06882
bbd72f60
3c4e0c3f
bb4f77ab
baf0dae3
bbd16443
3ba60403
bc8cb308
bb9f2a61
bc2c7787
3c032bc1
bc7290ff
3ad50f22
3bb72e19
3c89a750
bc992efd
bc0972ed
bbec6e24
3b3a5c3f
bc1b2280
bc83ed77
3ba2c244
3cbd700b
bc164f87
3c2fc0cb
bc420360
3c3106d1
3c909067
3c846930
3bb23bd6
bc27b9b7
bb908e3a
bc2aa3ac
bca55f5e
3c586f75
3bdd7562
bc5cca70
3a3ff7d2
3bedaff1
3b6213be
3aff2e27
3c4ff179
bb510c04
3b5a519f
bac85c02
bbcc7f0e
bb580cff
bc3838ef
3c62d8f8
3ab2e72f
3c1152b8
bc89dfcd
bbbdfe4f
39ed55ae
bc8e32db
3ca75604
bc6f573d
bc7db682
3bdee413
ba817ed7
3bb8cd13
bbb8e1bc
bc20c6d8
bc80efce
bc6f2088
bc97703d
3c4d1d0b
3c85429c
3c537358
bc67ffb8
3ca2581e
bb12d305
3babea54
3b25bf6d
3c25c95a
bbca5136
bc0cc60a
3b8b90c7
3c8c5ae1
3c1708dd
3c102255
3bcfe0c7
3cb8edd6
bb57e97f
bc65d742
bc22514e
bc1821d2
3ad0dfe0
bbaedf0a
3c73fdb5
bbaa7dc0
3a0ccdd9
bc9bb005
bca8d82e
3bf35d83
bc935cca
3b895450
3cb6def0
bc7d8624
bcb12814
bbcb0829
3c350fa6
3c54828b
bbf7c52d
3c0dfc33
bb6c541e
3c75efa4
bc897a57
bb3cbb76
bba6bb4f
3c83a5f1
bcbf319a
3cbf34c8
3c872196
3c2bf205
bbd1f68f
bbdd69b1
bcacea28
3ccc0f54
bc39b9ba
baea7f5d
3cc26a11
bca87f67
3b47a6b3
3cac45f5
bc57ab7d
bbfc3798
bb0a5b70
3c1ab724
3c88ebfe
bc32ea1c
bc8ff8ad
3c769821
3c9a47e4
bbea5dc2
bc2d9ace
3cc46dd2
bc862ce8
bb642ee9
bb647a68
3c7e1e49
bc481b09
3bdf79dd
bc8b4a2b
bcb8952c
3c2cd94e
3c48b4b7
3c447105
3cc3ebb5
bc8e752f
3b85158d
3bcc9e4f
bc352c49
bb400587
bbfec5bf
bad91755
bbd8ec73
3c89dae3
3c5229cb
3c52fb13
bb9a0423
bc9d4bd5
3c8c6b39
3c816ed5
b8af1cb9
bc395c52
bb5ebe1a
bcacb31a
bc295aa7
3c3c76e7
bc25696a
3c01c92d
bc736842
bb4cdce4
ba50f186
3b290260
3bd7d1fb
bcd178cd
bba804ec
bc86119a
3c1c8d34
3c4f81ea
bcb70179
bb82b452
3cb377f0
3c2eabe1
b8c04f10
bad6c2e7
3c4c7c5a
3c8542e2
bc4c0e2e
3c604bdf
3c9557d7
3b8ecb3f
bbdbe068
bbc74a05
3aafe547
3c085b98
3c0ce50f
3a916de2
bc7363b5
bbf4b0c4
bc44890a
3ae7ee77
3b8d9aef
3a87f08b
3c74f5b7
bbc6328e
3c8a7cf3
3c881f12
3b71c41f
3bd36c6e
3c6c814c
bb8a27d0
3ba0f75a
3accdeaf
bca44cf3
bb53fa75
3bf97c1a
3c6dfade
3b1fd084
bc99713e
bb350419
3c423ff7
bcb8560f
bb409b59
3c04277a
bc6c8645
bcb78f88
3c33ce8f
bcb0b905
bc90c16e
3c20af30
bcabe4d5
ba8de5ff
3b8ad621
bbd9aa02
bc0bfb1c
bc3c2813
bbaccc83
bc3d19bf
bba32552
b98f97f4
bc31d648
3c0c4d01
3c5156d9
3c8793e6
3c5f3f56
3b133c44
3bb07da1
3ca785f8
3c372833
3b6b7a80
bbb66ce4
bc8c3264
3bbdc7b5
3cacd6f7
3baa0399
399cab7a
3c909b43
3b293891
3c40bec5
3cbad5c1
3c3f4fa7
bc546b2f
3a08e858
3c7771ae
3c928e1a
baf17b2d
bc6fa130
bc8c6433
ba197735
3bc5b2ee
3a8fc8a4
bab03455
bbf1db08
3c461c34
3a56830d
bbb2aed2
bcc0842f
3cc78b19
bc29c4be
bca675fe
3cc2ff61
bca8d5a1
3b8d428f
3c941370
3bf0d69e
3b998610
3cbd2e8e
bc03ddba
3b6917c7
bb5af3e0
bcb550b2
bcaa094a
3c0f6d92
bc0134e0
bca8d0e7
3c7e8316
bc554614
3aca9b11
3c7a158c
bcad5451
3c4bb2e1
3c89d404
bc8519da
3c602a69
3ca9929d
bbc38647
3c7958d8
bc03552a
bca9db9d
bc920bfa
3c35c880
3b8ae6ae
bbea851e
3cd98411
bc611fb3
3b7c7297
3ccff31c
3c5910a1
bc2d25cd
3ca34843
b86f1349
bc90200f
390c2ede
bc789f0d
3c42d58a
3c2406cd
bbf9415d
bb21f01d
3c8cb2d8
3c170e3f
bc416190
bb836925
3c41adb8
3c30a12c
3c9f5e6c
3c6fe109
3bdcbfb0
bb45476e
3b11bdbe
bc8745be
3c685a3e
3c7662ea
bc100d2d
3c848aa1
bc4af2f1
bc341117
3cac4e92
3c7e77de
bc3e1a2a
3c985330
3c91b383
bba253ac
3c72deba
bcb3a3c8
3b75acb7
3c8a89b9
bc495cfb
3be3be06
3c8674ba
bc6ebb33
3c5330a5
bbb52d8b
3c9032ae
bc20073c
3bcc366b
bc29e086
bc454307
3c03012f
bcb17167
bc1634e3
3cc2405a
3bcbfbbb
bac5b568
3ca7eab5
3c7719f3
3bb24721
3cabb10d
bc9800cb
ba933379
3bdc0779
3c411486
bcb9c9ab
ba1e74a0
3c0a6ecb
3c9c375e
bbfa21ad
3bd2e9e8
3c8022c2
3bcad95e
bb95fdb0
3c9db27e
bc469f36
396f457b
3c59bb82
bc8dc286
bbf9099d
3c674d06
3c1a055c
390f655b
3add2114
bc4d9a20
3c610ae6
3c3bc372
3c64ddbd
3c93b3ba
3c9dd9e8
3c8d8a4e
3c094590
3b83d108
3b1c5be7
baa1d324
ba27059b
3c04fb56
3bc4cc2d
bcbbe069
3c6de656
bcb66ad7
3c2965dc
3c8b1504
3bf0d011
bb157258
3bf7209a
bca41185
bcbbbe91
bc3e97ed
3c09b2ae
3c92a09d
3c6a880c
3ca32e6d
bb741d56
3c6007ec
3c628d62
bc3a5554
3bb567e8
3c427b42
bc355f80
3b982855
b9bd223d
bc93bf67
bc25d8c0
bca92246
3be6493c
3cbe401c
bbe8689f
bc8d0aaa
ba71dd53
bb7c17ad
3c4a1779
bc6a7c28
3c6247d2
3b8d4925
3a6a2f92
bafd3b2a
3b368834
bc63370f
3be27f42
bcb883d2
3c5841ae
3b85d146
bc885bbd
3cdbd5ad
3caae1e1
bc5a3163
3cb7f32f
bad527c3
ba566ea6
3bb54891
bbb1e246
3b2024e8
3ca56cca
3c8c0f3b
3c65b436
bc206f2c
b9189d70
3c7588c9
3c5e350b
bc2464c8
bc7fa5a4
bc36f48c
3b2291dd
3a91d2c0
3c9c6684
3c425c9d
bc94f4bb
3c50e918
bc9cd7cb
bc9529cb
bc5ac568
39f9e9d5
3c2c7043
3a8ac414
bc033565
3c246aea
3c6f33a9
bbafb7a0
bc21bd95
3c416b3f
3c073432
bcc4569a
bc1b38c9
bc6cc053
bc08d4d4
3c7054a0
bcaf155f
bbfd129f
3b012641
3b940dee
bc2925f3
3ba2bf25
38a75a4c
bcc31284
3b8b6cf1
3903c981
3c68e91e
3c7ea003
bc2ea3a7
3c924a5b
3ccffbdd
bcae6091
bb959679
3adbd19a
bcabe4cd
3c11323c
3c0e9e5b
bc379280
bc424242
3c4a149c
bc0e3937
3c31ae43
bc3c9acf
3c36fcf6
3b62fe9b
bc65d101
bc0d55f4
3bf72894
3c80d29c
bb0d4a52
bc749fb4
bc27aa0c
bc3d65ac
ba73013f
bb93aa86
39dc321b
bad59710
3caaaac4
3c9a8a09
b9fe45b8
3c8f5ca7
bbb5c880
bcae98ee
3c482c04
baa6d6bb
bc803591
3b66ed64
bbfce6c6
baa10198
3c4e04b1
bc8ef469
3a25ee19
bb9af07e
bcaf6b10
bc0e3d19
3a524771
3bdbe071
3c9e5f16
bbc11d3f
bc01061c
3bd68278
bc00789a
bc1b5cf8
3b8ac0d5
bafe1a5e
bb9d040e
bc3c700f
3ae94017
bc996a72
3c39ceec
3c046cc4
3c97ad16
3b822364
bc776d4e
3c6e7f4f
3c483c80
bc74add9
3bc52bd9
3b4625dd
bc78aadd
3b8ad69e
bc4cadd8
bb265e52
bca7659d
3be839a5
3cb42bbb
3b935b31
bc7c83e0
bc5a40e9
bc90621e
3c7fca4d
3c684f84
bc6ef079
bc39d034
3cb7fc4e
3ba17308
bc60d7de
3c169287
bc92f401
3babefbb
3bd3660a
3c0343b6
bcc1afc3
3c03e9d5
3a8c0d2e
bca935b3
3c7ccf82
3c39f0fd
3b709819
badd97f6
3c9b5329
bbc5586b
3c29e0c5
bc3bb51f
bbc2b764
3c817505
bb9b7651
bc9b8bc9
3c8f1230
bc20cd1a
bc1d52df
3c797477
3bdca0e9
bbb0aa71
bb715d07
bcac9d50
3bde973a
3c0d3344
bacd6ec4
3c039287
3c819672
bc4a13b4
ba17dd5f
bbf7f68f
bc9e232e
3b31b4ea
3c81b2c0
3c99810d
bbbedfc9
3c6fd094
3b1a54af
39d4a067
3cb53b89
3c9ddd55
bca200b3
bc5738d9
3c524cc3
bca24d29
bb8b4a45
3c9eae3a
3b9262f7
3cc0f5cf
3c864d70
bbbe6eed
bc5bffd7
bc18a1c8
bcac8934
bc1e8e97
bcb668ad
bc828e9f
3c94c7c8
bc919211
bc040dd6
3be1b746
bcab9c2b
bc98ebdc
bc280cd9
3c83efb0
bc7c19d5
3c025c57
bc424924
bc813bb6
bc656d5a
bbe5448c
bcd539f1
bba94c64
3bc1e867
bcb23484
3c578a95
3aa89818
bb2e09a0
bc1d250f
bcb7d1e2
bbba8a7a
3c67d19b
ba18a2e0
bad9766d
3b8e9dea
bcba73a0
3b9265e0
bc27f53e
3b14d75b
3c611d67
3c5ce32d
3c4970ef
bc80148c
3a690a2b
3c4ad745
bc6377c8
bc488856
bc5bb298
3c09f99d
3c2532ed
bc2b165f
3c8333aa
bbe9aa17
bc14db73
bb60cc74
3ca2e859
bbdd9b40
3c790631
bc18eb2e
3c5280d8
bbf4a31c
ba86a2fa
3b0271e8
3c542df1
bc181a3d
bc9ff985
bb04128e
bb245e21
3c1bc5ae
bbf8cb32
ba1eab63
3bbbe8da
bc539d06
bc25c06e
3c911309
3c44bf85
bc744c45
bc215a4b
bbc645d9
bb5f8355
bc5fd802
3c774d84
bc87131f
bca6db7f
3c691478
3c9d9f04
3bd2905f
3baff200
3cae26e9
bb3a5080
bbbf3064
bba6a265
bbe72e33
3c8d5f78
3c84f7a4
3c400585
bc7eb1f4
bc3df6b4
3b0435d2
bbb0f531
bc43a3b1
3c99b8cb
bc944d33
bc218fd4
bc9c44bc
bc80d2bc
3c8b558e
3c623858
bca3432b
bc88b7fc
3beafe0e
3c8c6118
bc5413f0
bc62fe91
3bbe551f
bc64363a
3bd3c5ee
bcb43f69
3c91d5fe
3c8fa303
bc808742
bc802090
3c6e0830
3c6a6baa
bb8c0cc7
bca9d5c9
3bbf3a03
bbf17893
3bb59e61
bca6f4b4
bb4e2d1b
3b7cf60a
bc3e8a1d
3c174411
3c8bed6e
bb0d01d3
3c309b7f
3bfa7c37
bc8007da
bb406c86
bbb880dd
bc31e05e
bc98ec46
bc2b7e14
bc6ff5ee
bb87bdad
3c94e96c
bb3f4303
3cb42ad6
3ad08900
bbfe1080
3bd4d397
3ad33e45
bc88029f
bc5b0a74
bc715950
bb8b0621
bc954484
bc4fef05
bca3f6fc
3c59a9e0
ba70c0b7
bcaf2626
3ca0cb1b
3bdcfe9c
bc0d989b
3b751280
bc9f602e
bcae601e
bbfb2482
bc6450a6
bc0ff3fc
3c741c9a
bc3f7bd1
baf631ed
bc5ff4c9
3bc19590
3ac0879a
3b10e255
3c66c88a
3c70c950
3c70b24e
bcaa9326
bca9299c
3cd3fd0b
3a02f390
bc8789d5
3c805a9b
390dddfa
3aff0229
3c4dbc80
bc9332c8
bc569ed7
3c335f58
bbde8196
3b76835d
bc609eaa
bc195fec
3b363020
3c0ad5e7
bc7447de
3bafb34e
3c4594ed
bcab5a82
bca11b58
3cab472e
bc7ad345
bc383c1f
3c8c7e25
bcb0e492
3c58a865
3b7e70b4
3bc42a87
bc0b088d
3a6451cf
bc998a36
bcc926d5
3cb0ebf9
bc9225cd
bccfdcf6
3c1ad219
3c619ead
bc7f0c3d
bb5b1e0d
39f2d3bf
bb81fae0
3c8550b1
bcb4b4fd
bbbca2ad
bb776921
bb912769
bbf61e4c
3b08357f
bcb16c57
3b8d29a1
bc70dbee
3c729631
bbbcf219
baee69ef
3bc1e446
bc97de1c
bace7cb6
3c0357dd
39871c2d
3c25b7ea
3c44c234
3bdd8b07
3a853b1b
3c6ace9e
bc9390b2
ba75717e
3b4f38af
bc14c8d2
3c952439
ba30fb24
bb9861bf
3cb789c9
bcb51d41
bc99b16d
baf7a6eb
bc11d433
3bd54e10
3c7e9d8a
bb85f1f0
3b4df9c4
bbdcad39
bae94916
3c82cf93
bc05b874
3c4696b1
3bdae757
bc0b51ee
3c8e23dd
3b428231
baf478a7
bc48b11d
bc880cd1
3c018ba2
3bcaf8fc
bcc307d4
bb80f302
3afbea3e
3c8e2260
ba910d50
3c26af62
bcb36404
3c858bf2
3c78fdfd
bc27e52b
bb219b79
3bbf9baa
3c8c91e7
3b3e6f51
3c99a005
3b353200
ba84accd
3c9a615e
3c3f6bfe
3c3c9943
3c5606b6
bcb94dc5
3c66a8bf
3c8d817e
bc3f5062
3c80d856
bbd487c6
3c6e3834
3c422bad
bafb71f3
3c925112
bc12a2e7
bc23e3b1
bc4a7534
