bbe0d0d0
bb8e0c30
bc631703
3c0a47a1
bc040f86
3c8174b2
bb996261
3c556160
bbe02f9e
3c392f4c
3c361005
bb983932
3aa4c61e
3a83d83c
3b35099e
bb12e087
bc826499
bc363ed2
bc874809
3bfa350e
3c063c77
bbe9b3ca
3c5ea101
bbd912b6
bc177fab
388d236a
39cf2792
3c7c7fe5
bc83fb07
3ba59971
3bec8277
bb698609
3c16741a
bb106394
bb7366bf
bbf96063
bbb8b447
3c87c195
3c7b90c3
bb67bd90
3987928f
bc0b0806
3b2e401a
3bbcdbba
3b91d4bd
bbf97f14
bba73da7
ba922133
bc4fc0f8
3bf44d2b
bc56a719
bc1f5432
3c426168
3c18749a
bc6b1dd3
b9f8aef5
bc288d87
3c06c459
39a8739e
3c300c65
ba7ed385
bbb44b29
3af9d1d7
bc7351bc
bc5fa40d
bbe2ce5f
bb18f61b
3c80a87a
3c2cd48a
3c5d727c
bc29763a
3bacb00c
3c68853c
3c710121
3ba9392e
ba7fbca8
3ae8ef65
bbbd7cd6
3c0ef4ab
3c636969
bc1eef1b
3c7d87a4
3adb7916
3c5080ca
3b2da548
3c1ad34f
bc857066
bc7aaa66
bba01b7c
bb4bab83
3ab11f61
ba960ea0
3c3ab556
3b9ff78c
bc42e0ab
3b91e948
bbfda5e2
3c353285
3b603d4f
bbef8fd7
3c36bf6d
bbb518fa
bab6aba3
3b9970e2
ba9a98d9
bc3a34c7
3aefa91b
b957668c
3ac40aff
b9eeb533
3c87a05b
bc673745
3c6aba02
3bd4cdcd
3c4c154a
bc621a02
bc58ae8e
bc818f08
3bc5461f
3b9ccedf
3accf8f5
bc1617eb
3ba36f12
3b8f4675
ba8bf335
3ba42d1e
bc3cb8af
bc8ae07d
3c63a38f
bc0feb1e
bc7e8c4c
bc5cf98d
3bf7be05
3ac88b8e
bae4c6fb
bc8a5f9c
bb991757
3b400c57
3c6d483b
3c71284f
bc40c1fe
3976bb66
3a11e42a
bc1762ac
3c1c9190
b878b8e4
3c2d22a6
3c6333de
3ba66f83
bc499526
bc8eb18a
bbd0c089
bb6bf53a
3c7f09ac
bc161b1a
38ff458a
bae474ac
3b5aad35
39cf6a47
3bbae8ca
bc693c15
3bf8250d
3b76a665
ba917635
3bb34c19
3a42b8bc
3beefec0
39abfbd8
b9b6d604
bbbbc5f8
bb304a20
ba8c2944
3c64838d
3bc87522
3c1c4942
3b2853cb
bbeabf35
bc8eb714
3c8873f5
3c88d71c
bbc0507d
bb2e8632
bb3f7ad9
bbf73432
bc11406c
3b8bb92b
bb47920c
bc2ec40c
3c3edc56
3a9827bb
3c7a1285
bbae3f36
3c8bcce0
baabde5a
bc4b46fc
3bf854b0
b9f79158
3c68309c
3c88ece4
bbd3112e
ba1ca44c
3c05770d
3bcdb1e0
3b4f48d7
3c840e44
bc71ed68
3c7f28e2
bc7e9b65
3c7514c3
3b95bf24
bbe01136
3bcb9db4
3c0131b0
bbfa1576
bb7db20c
bc327168
bbc388f0
3a2e4852
bbd6d275
bc356a3d
3c2ad741
3c3f6aaf
3c360e16
bc26348b
3c6ec7ee
3bcd4e38
bc4735fe
3b320525
3ba0fb3c
bc5c0fb7
ba6a3b84
bbfe5eeb
bc16d8ab
bb2b9237
3c4dcfac
3c54a334
3b862fa7
3bba6c7e
bb1c6413
bc7f54b4
3b82e9b9
bba46866
bbbd5479
3c8ae5ee
bb34a035
3ac70823
bc3d85a7
3c2ec470
3c29b1d8
bc0911e3
3c4fb4fc
bc5bca64
3c4f9b85
bc84cdcc
bc148321
3aecf674
3bb3a11c
3c24f000
bb7385ab
bbfbc987
bc8a5f48
3c3d74c4
3ac4ede4
bc4aaa05
bbf8e250
bb3d9171
3bee2ac5
3b036ec6
bc275b60
3c616550
bc948654
3c0c5bac
3c48ee95
3c75ebd3
bb98aa97
bc795b6b
bc664216
3c75ef2a
3c433d9f
3c70bc94
bbda65d2
3b92c3b8
baefad9a
3b0fd060
3b6e3e73
3b255b26
bb491105
bb6ee269
bc061a0c
bab80960
3c870640
bc10e589
3b8f15bd
3bbdc844
bbc883b2
bc87f094
3bd7373a
3c4d1bb3
37f41bc6
3c02637e
3baa665d
3c680517
bc07b7e6
3c7cf328
bc51d4c3
bc38e8e6
bc1bc689
bb47acc1
bbae1f4d
3c1c8469
bbe394ec
bbfef732
bb2fe9c6
bbc82ae1
3c55415b
3a569886
b9a8e3b1
3c4e84bd
3c470c94
3c61bb8f
3a80367a
bc2f778a
bc05c936
3c560f34
3c275fed
bb8d1a0f
3c208d7b
3b928031
bc09846c
3bfc4262
bbab690b
3c3adc8e
3c7be1ce
3c290b2c
bc68c21f
ba2c080f
baa9d84e
bc64585f
3b939ab0
bc6282e8
3b6b8086
3b5d9cba
bc063708
bc8c78fc
bb1f2ba1
bc250ccc
bc096fe2
3b675ced
bc6d0b5d
3c100ff6
3bc510d4
bba53b45
bc797a75
bc169901
3b1dc918
bbc8554c
3bd2d9d3
bc124109
3c624ec7
3bd26086
3b3581cf
3befa3f8
3b5016e2
3c39d309
3c84755d
3c50b82a
bc2ca78e
bbe301c5
3badbd64
bc6138a8
bbf24f15
3c2c52b8
3b29fc86
3c2c6bd2
badc33ea
39e6d33c
bc5475b4
3c008fe5
3bd8d548
bc0e3be5
3c8557a0
bc1c7391
369b5b66
3c7bb8ad
3b3717e7
3b0524a4
3c0fc263
bc2d10b0
bc24c9c9
3bf12a08
3c8d24d7
3c293887
3b9bd347
3c3f629d
399810a5
3c032422
bc2fe4f0
3c815e26
3c65fa8a
3c8478a0
3c28c98c
3c1fcefe
3c378c3c
b787e53c
3bd31e51
3aceee99
3a8064ea
bbcdfba7
3b524fc8
bad99964
383e6be1
bc8ef1dc
bc58808b
bb05b547
bc5d04b6
3c832be9
bc77f1ea
3af850ac
bc12dca4
3beb86c4
3bc61e68
bb445c95
bc6ac0f0
ba93baaa
3ba890ec
3c3fe4c6
3b696b60
bc58531f
bc87aa5a
bbfe55c6
bb0caba8
bc2dc339
bc2be786
3c067bc9
3c0216ec
bc62cb2e
bb87e253
3bcbe7d1
bbe07bc9
3b5c7ecf
bb0744dd
3c8ad69b
bb332d14
bc13278d
bbee6a34
3c2e4246
3c3337d9
3c6ae4bd
3c24cf04
bbe3db63
3a9889c7
bc840902
bc1e2a56
3c4ad9ba
3b96cbe1
bc82e0f9
bc000edf
3b031508
bb18af41
bb445c9e
3c74661c
bbf61d31
3c7b344e
3c5828e0
3a8e7e3b
bc5be58d
3c3aebec
3ba98d0c
3c4604fe
3c087e17
3ad8d5b3
3bcfe431
bb9b1a6b
3c59fe6d
bc87c271
bbb548dc
3b297465
bc2542bf
ba83380c
3c7f7209
ba313006
bc2b5b53
3c1b0a45
3c4b87b1
bbe90aa1
3c28a7f6
3c7dc9fb
bc44c637
bc5441f4
bc070564
3b78046f
bc82a132
3a99f740
3c699399
3c7c6156
3c3deeda
3c00d620
3a3880e5
3c8c2ce8
bc812bb5
bc813e38
3c4d231c
3a023978
3ac367a7
bc4a546c
bbc31e1c
bb5786ba
3bda691e
bc4c01bd
3bd01629
3b951e57
3c36779e
bb9d7a75
bb974269
bb0c6648
bc353c79
bb8ea676
3c7b2836
bc79456c
bc5eb10a
bb9acd5a
3b73d57a
3c8629e0
3c1838cd
3c626180
3c49f63a
bb453fd4
bc3e6263
bc5676b6
bc0691cb
bc345ea1
bc88c827
3bb2d54e
3c342597
bc3b92c1
3b88383b
3bfebc4f
3c5cc816
3a33b1eb
bbfd155d
bc058b6c
3ba83fbc
bb615e54
bc6daf03
3c57dfba
3c631a71
3c86fc69
bbfafda2
3bfe9fec
3c37e908
bc00149f
bc076a4a
bc8cea83
bb891091
3b5fdb77
bb245603
3b8ca116
3c65400e
3aeb04ac
bbe0fd19
3c25f48c
bc6529c9
bb359eb3
3b98cc30
bc7d03bc
bbc43352
bb1f240c
3b56cb28
3b70ec51
3c0ef4fc
bbc49752
3a146d4f
3c6f2b63
3c3afa46
bafb1ffa
b9c3017b
baaf4a05
bc7daf31
3b3503ff
3bbacbd0
3c19bdb7
3bb80697
bbed42c4
3c80f67f
3922c7ec
bc45b7f0
bc39e5f5
bc1a8156
3af0e8fb
bc40143d
3b8a01ae
bc001711
bc7e82c1
bc40c84f
b8f03395
bc0de4f8
3bc3c0d0
3c2564ec
bbbf2f13
bc3cb2f3
bc21e08d
ba30fe07
3bcebd55
bb251d35
bc112881
3bf56421
bc1a5d25
ba3fa03e
3c3c21b0
3c1c795e
baadbf6b
bc24339d
bc058c42
3a46d31f
3a622980
3ac72b3c
3c8078e8
bbd5ec1f
bb4d12e1
3c073fd8
3c597430
bb93f117
bc80faf8
bbe6fe24
bb3466a9
bc758821
3c30f145
bbe545d5
3ba879b1
bbd37cfb
3bba78e7
3c85648c
3c081e10
bc941608
3b6c6776
3c7e5fea
bbfd4643
3b98856e
bc569bef
3c566844
b8ef4d44
3b6f5023
3c80b756
3b14f73c
3a077fb3
3ade4e07
3ba0f728
bb551e73
bc148acf
3c5c2521
3c0f44e5
3bff0854
3b9e0d76
3c89c6a1
bb9e54f5
bc4a3d3f
bc861a7e
bc685976
3bb21e71
3bdca40a
bc93dbde
bbafbed9
bc7fad72
bbf587fe
3b0a1e85
3c66dfcd
bc1d0a37
bc453866
bb8b35d6
3ba3c150
3bc64669
bc85f106
bc5f4b3a
bc6e52ec
bbbd986d
3c3b0760
bc3ce19c
ba9a40e7
3c161e1c
3c0e9a0e
3c423310
3c8626ae
bb1a78fd
3c36a104
3c5ba51d
3c7af69a
3b3b6481
bc1953e2
ba0e5bab
3c6cb9a0
bc0a4145
bc4f5318
3c4e0edf
3c8ca66c
3c58f58a
bc809f18
bc8336bd
3b38b0ba
3b032028
bc1d4440
bbbe8488
3c219ccf
bbeeed7c
3ad58399
3b4375ff
bc2ec42e
3c547f10
3b66315a
3b8642b8
bc79f4a5
3c1da35c
3c0de5d0
3a43bf99
bc6d67e6
bc3ba15a
3c5477a8
3b8c43c6
bbbb4c8c
bb9e25e3
3ba5c04e
b98ffdf6
bac9197e
bb7f3232
b925b5a9
3c4431d8
bc222da9
bbb0fea3
ba117101
3c29ee7e
3c3e393c
3b7aebf8
bbe83bbc
3c8e2a54
3b9bed64
bc5dd3f9
bb47a2d3
3c3091f8
bb94c891
3c6b2ee2
3b22c1ff
3b47d3ba
baa19f4d
3c041bed
bc4213ae
3c0176a9
3be666e3
3b8eea5e
bbc404b8
baf688f8
bc795075
bc61e12f
bba0b78a
bab67ecf
bb75c5a1
bc81b225
3b716521
3c220ef2
3c38d999
3bb9beaf
bb9eb92d
bc04f9ec
3c16afad
3c860e5b
3c423475
3c0995b5
3c610c7a
3bf7ab55
3b08d23b
bc69698a
3c33775e
bc814fb5
3acc4bfc
3c8782df
ba2ae151
3b2418f9
bc0067e7
bbe16d5d
3bfcd562
bbe81bc8
3ab65a70
bc00d9c5
3c6fdcd5
bac6aa8e
ba8e5529
3a9f25fe
bb4ac71f
3a3da169
3bfe9818
baa1626e
3b5c271d
3a38398f
bbde4479
3c80e8df
3b20acc9
3c260239
bb5ec6ac
3aa32454
bc570830
bc42ae3a
bc198ef7
3b352c47
3b9557b6
bac5912a
3c8b81ba
3a950ca8
bc23fda6
bbc66abe
bc26ab1c
bb726809
3c5bf20c
bc870fb6
3b00bff3
3bfb38a8
bc2beeb3
3c17c1f5
bbcc8cf2
bb93d774
bb781043
bc646a9b
bc210334
39b45678
3c5b0a1e
bc94704a
3a5d8b50
3b57972b
3bea29c2
3bb34bc5
bbd8a01b
3aa6ebf9
3c79ea67
3b2ef8c0
bc8234ff
bbb0e389
3c361f32
bbdec27d
b9952a6c
bc840ecb
bc793c51
3c7fd495
bc1e64fe
bc36a822
3c3a29fa
3bb6325f
bc37c3d0
bb94cba5
3ba93025
3c1eeae9
bba8521b
3c3e4999
bbab9a98
3c0cf2a9
3b4cdfd3
bc654384
3c57cef8
bbb4bca9
bbdfb269
3c5f64ea
bbb2d73e
bbf9a0da
bb8c8f0f
3c8e700a
bb150a13
3b1002c2
3c3028b9
3bea642d
bc60477b
bc60fa9d
bc69e9b6
bbe9810b
3bcb63c3
bc902dae
bc47f5be
3c8d4090
bc951270
3ba43289
3c1bea5a
bc820bdd
bac58a05
3b66507d
bbbfd284
ba2cd65a
bc4641d4
b98314d9
bc0b9d3f
3c31444c
3c255c7c
3c6a72bc
3c864036
bc2e4999
bc1c4f4a
bb49170f
3bc1c702
bb0280d7
bbd2103d
bc85612b
3c42713b
3bc30ef1
3c22d62f
bc2f22e9
3c2afe1f
bb812356
ba88774c
3c14e891
bbebabe4
bbda9155
3b5767d7
bc1f03a1
bc4ff5ac
bc0f03ce
3c284940
3c41e912
bc05e985
3b12b926
395d9b26
bc12e299
ba9d0cfd
bc6f0739
bc3a01f1
b92e9dc0
3c491201
3b23a213
bbac5af9
3af3f756
3b13426c
bba5af6d
39e9cf78
3c3875b6
bafdac71
bc770dbc
3c63ad33
bb01f3ed
bbd1b304
bc216d89
bb80c284
3995ad6b
bc38f647
b9ff666c
3c74cad6
3c8b7c2d
bc019d71
bc731e38
3bdd8fac
3bc70932
bb703e79
bc28a001
bc886fef
3c7fa038
39612a7d
bc78f4cc
bbfc5e64
bbf3ec30
bc1884d1
b7da1a93
bc00abf8
3b546d37
bb46a0ec
bb68a466
bad729d9
bc52a4c8
bc4530c1
bbb4d17b
3c0bdca6
3aaffcc4
3c443f1f
badd67a5
3bd2250a
ba8d0bc2
bc1ac76b
3c48e36d
b8c73abd
3b04cb5b
bc2f744b
3c8c4f88
3c6c4025
3c0afc0a
bc2bd936
3bb83ee7
bb472e70
3bcfe342
bc7073d8
bb8efc67
3bb84e1d
3b2fb9e8
3c904e25
3c7a3f1f
bbb4eed9
3be7bb27
badbb3b4
bc4c087c
b9c62ed7
3c8d4312
3a56abda
bc5ac983
bc4ce005
3b64cbdd
bacca659
3c0a8f1f
bc195cae
3c7bc7fa
bbde9c81
bc1e18c3
3c1c0b39
3c0971d5
bc730f39
3c105511
3ba9a184
bb8e1bc0
bc83c8a6
bba9eb2f
3ae3337d
bbecbf82
3bd89237
bbc442d4
3b5ea0e0
3c883c4a
bb6f79a9
3bb4f74c
bc8cc90e
3c887db4
3bd5c400
3c117df5
b9e3f03b
3bae99a2
bc411d1e
bc6bd3a2
ba6a557c
3c7d2839
3c19194c
bc2a28b7
bac33950
3ba89928
bc86a304
3c6249c0
bb2da935
bc42f17d
ba0a7aa9
396acb43
3b329608
bb81899a
b910d3c5
3bf2034a
bc39af2c
ba5f2bec
3bd0e13e
bc252cb3
3bd36d14
bc3212ae
3ae8ad06
3c4e8cd9
3bccd4ba
3c8652bb
bc6e588c
3c04006b
3c05a85b
3c3fec5b
3bd5e056
bc23b841
bc1eff8c
3b6101ce
bc88f22c
3c87b4e7
bc47567c
bc86a572
bb667066
3ba8f370
3b9d1d79
3c000125
3c55f68a
bc12ac00
ba9babff
bbdcd05f
bc359299
3c4fbfab
bc3bf65a
bc35287d
3c0c268b
bc451a9e
3c0e5d92
bbbff4fa
3c22e6ec
3b3ef3b9
bc5177bf
3bcf8586
3a49f01b
3c825946
3bd4abc9
3c89eeca
3bd27d79
bc7857b6
3c444911
3c8b06bc
3c331cdc
bb8afdaa
3b95a19d
bbd984df
bb9b6ea6
bac848eb
3bf999a5
bbfdc19d
3c038ea0
bb4cc913
bc818dd8
3c11a377
3c2cc0a2
3c4f6b4a
bc0f7e7f
3bf200e8
bc930049
babcb97c
bc718b82
bbd605a2
3be87afa
3b806a49
bb85fb7e
bbbb3bfc
bc0334ad
3c33e555
3c7a8e68
3bbd135a
3b10097c
3aee068c
b660d090
baa8b39c
3b2026b8
3b5fbfd1
bc740cde
3c7ffc7b
3b01aa83
bc093cac
3b59ca7f
3b32fb59
bbde88e8
3a85205d
3b828052
3c8beac2
bc6c3bce
bc3e9d6d
bc8f8998
bc2e19a5
bc7f87c3
bb5f166a
3b89022c
bb7b5321
3c013b5f
3b1bd7c9
3c429560
bb8369a4
3c0e5027
3c6098be
bb780da9
b8c29d9f
ba74529a
bc3ed3a4
3bcc7fa2
bba32d21
bc8782b8
bb69c7e7
3c555d31
3bf0e389
ba59cb41
bc5397b0
3c1cb1bc
39df6339
bc3a62be
3c07869f
bae2d2e2
bb503a8d
bc344fcd
bc42324e
3bdc69f7
3b4159e3
3c6b062f
3a1eb867
bafe6405
bb84e305
bc2bad8e
bc6e21ec
3c8a90ac
bbd24d46
3c8d0188
bc09c423
3c448354
bb24ebbf
3b5cf89d
bc7f6cc7
bc04b032
3c75f5c3
3bbf5865
bbbfa55a
3c484db1
bc785838
bb133df1
3b82499e
3bb6ebc5
3bbe5a09
3c2ababb
3c82ea92
3c258001
bc6041fa
3b9abe5f
3babf9b7
bbe388d3
ba24cfbf
3c64ea9d
3a9a3f4b
bc728540
bb55ab4b
3c2a54fd
3c3cb194
bc0d7e92
bc1deffc
3c7ddb68
bc79ca7b
3a5a3e58
bc39a6c1
3bd3acd7
3c681d92
39983fc1
bc712aff
bb1981a4
3ba7044f
bc394f58
bc4adbad
bc6d4d9b
bc6d2279
3bd79354
3bf627b4
bc5d1800
3b822cdc
3c54aef1
bc35b727
bb8b46ec
3bb7a37d
bbc5a0b6
3be8c27b
bc24fdff
bc7847ca
bae4ee82
3c287ae1
3c89c844
3b96c3ed
bc3c6dd7
3c1c268d
bc1211a7
3c45aa0b
ba284a7b
bb609f23
bbb3a728
bbd91c5e
3b4ae039
3bbc012f
3c05dcc1
bba85ef5
3c5c185a
3b06ddd5
3b86e45e
3b7af0b7
bbf7ea36
3b792ad7
3c254525
3c0bca5e
bb874c36
3c8f7229
3c8c171f
bbfbfad6
bbabd60e
3c5a4c12
bc653a3b
bb2941e5
bbd511e4
3b99ab51
bc654378
3b1b924b
3bbe5cd2
bc5e134f
bc8f7bee
3c4b1dbd
3b3c3787
3c116722
bb1737b7
3c150c82
bbe1724b
3ba3d627
3a435aab
bc3ffb41
3c770fc8
3be6997f
3bc1e9ee
3be04fec
3bd48e13
3a00d07e
3c471423
3b58bc04
3c04c21e
bc8a7f26
3c4d9eab
3a0493a3
bba780d4
3c0b4343
bb236bc0
3b50a733
3c89c4dc
3bba6dda
3c492b7b
3b6e870f
bc45d83b
bc36c0f3
bc22f4d1
bc2798c9
bc3e190d
3c14adca
bc8ef621
ba0bf46a
bc1ec28f
b927cb94
bba9cabb
bc8b0786
bc2fbe5e
3c1847e1
ba845f8f
3c645382
bc35f211
3c092f33
bc82b17c
bb9f9807
3b93c78f
3c057de4
bc10f28f
3c85fc63
bc0cc1f1
bc35fa29
bc50e0dd
3bf7eafc
bb2cff9f
bbef9786
bbc31275
3a399b6d
3bff8078
b895f245
3bbdbe06
bc2457ab
386ae18b
bc37bc47
3c85db7a
bae11095
bc25122a
bb867362
3b9159ff
3ba9d6be
3b37d09e
3c1fb02e
3c20e1f4
3c77d70d
bc33487e
bbd366c7
3a5e846b
3c07cd19
bb03eba6
3c8f8753
bc1d5bad
3b0e8271
bc521f8a
bbb65cb3
bc2ee5f3
bbcbe994
bbbfecb0
bbeddf61
bc1cdf3b
3c681ec6
3c254baf
3c81e3ec
3c7ac86b
bb426d8a
3b04f413
3b00fd9b
baba342a
3b504403
3b88ad27
bc0608ed
bbd5f64a
3bedbb38
bc17be1b
3b0cfdef
bb207988
3bc2f618
3c65ce88
b88c4caa
3b3a6403
bb7a31dc
bc5a5c00
bbb3548b
bb6bc814
bc8acd2d
3b583d07
3c565ba2
bb796e2b
3ad76d42
ba2c728f
3bd71c3c
3c57e95b
3c3f4315
bc0a5e33
bc2e4493
bc056dc5
bc5dc315
3ba0cdf0
bc832046
3acb3cc4
3aa7dc7d
3c8fd6da
3b5c9da1
3c348c51
bc1265dc
3c2c4da0
3baab02b
3bce7392
3c2949b9
bb506503
bbceec4e
bb414df1
bc70e03c
3c09ee3f
bbd96362
bc2bad30
bb02b9bb
3abde56d
bb3905f9
3b823bb1
3c1be775
3b019de5
bc50177f
3b9031d1
bb60e747
3c91eb2f
3b9aed5f
bc33632c
bc5115db
bbd553c7
ba6a7873
bc503d7a
3a8dd5b0
bc6ebe92
bc5b338b
ba7ca9ce
3b2fda74
3c8f96da
3c177b7a
ba57f188
3af65a20
bbb0938a
bc87b497
bb8c1bc0
bbfbaa95
3c8189c1
bc4d4c0b
3c6e6b28
bc0e9c02
bc174ffc
3b00cd23
3c50fc20
3b62da37
bb82e1c7
3b367ad9
bb045148
3c19ea69
bc6bb605
bc750e9c
3c26bccf
bbe02350
3c7ea9da
bb9dffc3
bb07e28d
bc5afb7a
bc8cc968
bc06e06a
bbcd845e
bc15092e
bb929ec0
bc70a213
3b95d2e1
bbcba803
3bf0c3eb
3c882d02
3c7f0297
3c0577b3
3bf3076e
bc670f19
39331bff
3c15b35d
bc5a1280
3c1be4fb
3b187847
3c30f9f9
3b89c32d
bc292785
3b96d1bc
3a4b0db9
3c6925f5
3afb2866
bc5f64c9
bb16f1f9
3be240c1
bc0db2dc
3c1ac201
3ba5bfd8
bc33e703
3c0d89ac
b848117c
b9de2611
ba426e71
3c479424
3c4d54f0
bb1be227
3c294bd5
3b24da9a
3c4c3971
3c818bb8
3c419046
b977edf4
bc7e7fb3
3c357a30
3c82dff9
3c3189fd
3c2e2286
3c792155
3c06701f
3c867102
bc594755
bc862f2c
bb33b252
bb986259
3bd018b2
3c6aee2c
bc20e93e
3aa6345d
3c4ae8a0
3c8c000b
babd1c9a
3b2b3c7c
3c219e50
3c1f7a83
bb659f93
bc26d13c
bac31bd2
bc51ef0c
bbec58db
3a9d9f6b
bc719d9d
bc28c2e9
bb45bb24
3c41afcc
bc489cce
ba917b9c
3a636fc9
bbd99252
bc0cd2b9
3a3610c9
bba3b35d
3bfc6f1e
bc0ab6f4
bb919b08
bb3aef5d
3c86be0b
3ad2abe8
bc2a66f0
3c84e70c
bbb4dbd9
3c6e6991
3b699b83
bc2a53f0
bc81f4a8
3bfe81d3
bc12aafb
3aabc961
3c825e31
ba10b999
bc8c5dd7
3b8254fa
bc3ec89b
3c252ab9
bc857ba4
bb2b5e4e
3b89826d
b9c5b068
bac13401
bb4c157a
3c8317c8
3c5e00a7
3b305123
bac89f63
bc035b85
3befdfde
3c849193
3c892910
bc634199
3c835865
bc499fd1
3af8bc2e
3c6e5f40
3bea36bc
baae8426
bb14420a
bb81faa8
bc4c87ae
3c219af2
bbc25717
bbbe2326
3c6a3791
bbcb847d
bc7331fd
3c6c4223
bb5ffee6
3b691c3d
ba16fffb
3c408e6d
3b33f03b
3c83cbae
bc1c7586
3c10a047
3b2a2782
bb7e24cd
3c2d90b9
bc88687e
3c8084fa
bbd78aa5
3b970535
bc268667
bc42e965
bc703eb7
3c6498bf
bbba0541
3979664d
3baf56ab
bc414b29
bc3e8e7a
bc1f6acc
3c2db899
bc531355
3c8c92a3
bae9b11a
3c0150b2
bc4c5ad5
bc0d193b
3c44fe40
bbb5a825
bbabf49b
bc4eb894
bb18cfa3
389dea61
3a876076
baf31798
3b58b034
3c75a5b3
bc378a2f
3a60bc7f
3ba149e9
bb2d820c
3c5906b3
3c706ce7
bc5c0fac
3c521732
bc787f50
3ba3e845
bc5fbf57
bb1d7bef
bc694c37
bc1080b4
bc1b11e2
bb688a2d
3b8fa117
3c6b8d75
3b150cc6
3bc09c7f
3c09a872
3c87c022
bc001fc7
bc0b397d
3c8c9569
3c3d16f6
39eb9119
bb9076ec
3bb82856
3c4b92f1
bac15d83
bc708af5
3b2133cf
bb82c1c4
bc7ad016
3bb285ca
bc312659
3c305a2e
bc4baadb
3c47e9f6
bbf5ed8b
3bd830ea
bbb272c2
3b9c7d40
bbf7b9e5
3c2c0bb6
bc606e9f
baec8cb1
3c6c8b3b
baef662a
3b6e5983
3bf50999
bc847bf8
bbae8358
3c37ab2a
bb316376
bc195657
3bbd92c4
3a15f1cd
3c26125a
bc8ceedf
3c7c6767
3c6899af
3b657e38
b9e14019
bc4d793f
bc6d61cc
3bbf9d40
bc0a69f9
bb91a76e
bbc9e757
3b4d3fd3
bc83db83
b9a68aaa
3c7bc829
3a96a05a
bbf53665
3c07339e
bc59bf2f
bc82138c
bbf083ba
bc658cdd
3c81ee98
bb92a28b
bc8e2132
3ba9565d
3c5c00c8
bbde1ecd
3981741a
3bc2a385
bc85915e
bc18284a
bc1b62bb
bc11d465
3bff7d09
bc2e5060
bc4d0eda
3ba75f1f
3bec32e2
3a0b6e89
3c131ab2
bc88e905
3b8631c8
bc8c59a8
bb3c74dd
3c6bcc62
3b2ae8d9
3ba95bdc
3c358562
3c080a4c
bc1d27cc
3bd257aa
3c83b7ae
bb796854
3c813ac2
3b53cf9c
3c337278
3b6cd61b
bc6bfbe7
bc38eaf8
bc1508b2
bab4c6e9
bba8adb2
3c37d8f5
3b1b3bf9
bb9a2149
3c2f58d7
bb411ed9
3c6fd727
3c2e3308
3c467ec7
bc6cea44
3c5c0bd9
bc8c3df5
3be5074b
ba9f8313
3c55e1af
b95e676e
bc1a2aa4
ba8b3677
3c33f0a5
3ba0514a
3c09cc60
bbd08932
3bc07519
3b0a54ee
3c4d3dc7
bb612249
3c8952cf
3c34b206
3a60055b
bb1f4ad2
bb3c9fc8
bbe8c31c
ba8f436e
3b34e5bb
bc02837a
3c204828
b749539c
bb11f104
bc87b9e5
3c296f15
3bd22422
39d954df
bc0dc14c
bb981edb
bc34ce91
bbc51483
3a26551c
3c830740
3c1a7185
bc8dc8e3
baf541fb
3c0c77c5
bc239cc0
b9ed81d7
bb243344
3c1ebab4
bc2363e1
3c882c2f
ba178520
b9d2dcc2
3c162f5e
bb19ac39
bac54f2a
bc55b192
bc4a2834
bc148e28
3c14ffa9
ba9ab7d2
bc6763d3
bc501113
392b3da8
bc2445a5
3c8ab64f
bc440039
3a3ce5fa
3becf8fb
3c3da555
bb03568c
3be68d9a
bc7ef784
3c0abb34
3b48b849
bb0c47d5
bb6a64c5
bc70b77a
bc127a4a
bc8a3581
bc2fad83
3b0798e6
bc7d5772
3c124f1d
3c3b674a
bb163d03
bc634db8
3c56812d
38a4d60e
bc1b2f63
bc617e71
3c487480
3bfecf15
3c64130b
bc1a2288
3b5628ca
3bb0d21f
bb1b5774
3c84d53d
389ca842
bb5c4638
3c800779
bafb27a9
bc4821e4
bbfe8880
bc7b73cd
bc19bcaf
3beb4ef9
bc069008
bb87fc5d
bc31cc31
bc5828c8
bc067822
bc051e04
bbe69a92
bb94db57
3c13232b
bc76eda9
bba2c5bb
bc55d868
bb9072ce
3c5cd2ac
bc407a68
bc530c7a
3c7e64f0
bc28f1cb
3c78b697
3b8d0a61
3beff8ae
bb552fb7
bb8ea197
bc809c0e
3ba8ff2a
3bc96b4c
bbb58baa
bbbcf5d5
3c1dd9e1
3bc5e1e6
bc76f8e2
bba3a8ff
bc75c39f
3c877458
bc7c55f2
3c8f4472
bc7da1b3
bc27c080
3b1779da
bb9bdded
3b932ea0
bc0b73ce
bb52d992
bb749d02
3b36df99
bbd50927
bb8a3936
3c4b5c34
3c49d62a
bc47f92a
3bd300d0
bbdc2bdb
bc55fde2
bc0bc719
3c0c43a8
bb2ba69e
bab94e51
3bdfcd6a
3bdb711e
3c2ccc46
3c8b2638
bc72f63f
bbe787d3
bc15d51f
baff7ce7
ba3adee4
bc0711dc
bc867dd4
3c7c4c86
3c31d28d
3c2470bc
3babe344
bc6658c3
3b000fa7
3b4fd4c8
bad121cf
bc605b4e
bc09cc9e
bbb48319
bc597478
3c72d6b2
3be1bc73
3aa0820e
3c851a42
3c6bd4e2
3b64a3b2
3c3a0f17
bb367cc7
3ba8e2e7
3b273d4a
ba951e9c
3c400e59
bc4dd9ef
3bdcebd6
bc1c7c13
3c1f3ad6
bc6c0e65
3c02e4e8
bad75070
3be31f68
badad820
3b132b1e
3bc857e2
bb0975fa
bc84bc07
bbbe181c
bc07db55
3b725bb0
3c80ac67
bc5e67f7
b8ab20ab
3c68103c
3c6c4f60
baaf2d5d
3bbc4845
3997ff54
bacce4ed
bc749894
bb1477dc
bbbb5e0f
bc5c9c5b
bc2196a9
3c949dd3
bc57b9dc
bb95dab1
ba89fefa
3c291d59
3a3b3293
bbfc9c7a
3b95512f
3c068d2d
3c187706
bb8d1895
bc821753
3bf9ba00
bc0e543f
3c6836c3
3b0e5d03
bbd0c8e3
bbaa6664
bc8010fa
3bed53a0
3c52853e
bc826d52
bc0553fc
bc81e675
3c32850f
3b440c86
3b9d5bd1
bbc721ae
3aa477a2
3c0c29b0
3b4ad9ba
3bf0979e
3a6b2e51
bbc933e0
3c655f64
ba9afcbd
3bdae35d
bc853c90
baa9dd34
3c82b4a8
bb4346bc
3c30bc08
3bd7ddde
bc331dc9
bc15d88a
3a1942ff
3a272a84
bc695e8b
39073230
bc947f1c
bc6af78f
bb127d05
3c21b9e1
baa313f4
3c3c2dd8
3b8b25c3
bc77c36c
bc8681f1
bbf81b02
bc36e60e
ba9d0977
3ba93c26
3c576290
bbbd4eda
3c7337b0
bb4bc73a
bb87bc22
3c630926
bc2b5578
bc123091
bb16e53d
3bda8dd6
3c4668a1
3c8e2331
3c2ac168
3c8448d3
bb9e0c0b
bc85f150
bb8dda06
bba47aa9
3c692c0b
3c61c7e4
bc2a211f
3b7f66d7
3c26b218
bc3e73e9
bc37b6bd
3c07cf86
bc8668f1
3c7d1a9d
bc0f181b
39e626a1
3b8ecc56
bbc6db82
bb98923d
bbb0b6fc
bc363fee
3910f621
3c82e914
bc174e63
3c3eadc0
ba3a2612
3c48c8e2
b950a29a
3c83d6db
bc88f2ce
bbf3423b
3c7045e5
bc626c4f
bc60ca8e
3c5413db
bb5d6899
bb34baf3
bc5a7d9f
3b181c09
bc4c314e
baa34982
3c34183b
3b920e1f
3be27707
bc362f00
3baee04a
ba8ceb2d
badf00f1
3bcf067d
3ba2467e
3b73385c
bc0c207b
bc811156
bbcdcf50
bc823c4a
3a4c8eed
3b3f3bbb
3b04db65
bc2ad38a
3bbb779b
bb151e7a
bbb2b1d3
3c20b72c
bc15baa3
bbe297c3
3b363133
bc5858d2
bb470dd7
bc3e38f6
bbf25b85
3ac83a74
3b54ca3a
bc8fd191
bb9d832d
bc2a567d
3c8c8388
3ab596a5
bbffb37f
bc5d2477
bbfaca05
3bcd2eca
3bd4901a
bbed1059
bc4b5676
3c8325f5
bbf82920
bbcfcbb6
bb972bad
bb85c2d6
bad81b4e
b9f606e0
3c139308
bba08c54
bb3a3b99
bc410304
bc619351
3bdabb6d
3bc0e360
3c739d09
bc8d91c8
3b9a635b
bb0cfe5a
baf44dbd
bb680788
bc8a7bfa
bc827637
bc75c2a3
3c039f71
bc75aed6
3c86470f
3c1f0327
3c0edf70
bc3cfe87
bc1b11ff
3c3ce3f5
bc763a23
bc842be4
bc27a28d
3af2b51c
bc3f0561
3c3f6450
3c122a4b
bc86396f
bbb6b251
bb8a4be0
3c107f31
bbe03270
38b856f4
bc763b68
bb8547d5
3b9806bf
37f84d84
bb70dea9
bc37df2a
bc5e5006
bb837d54
bc6b66d2
3a6baa88
bc06111a
3af31e70
3c2a608b
3c8b35ea
bc811933
ba26ad6d
bbf45e07
bbab31f7
390e8423
3c67f0d4
3c8092a5
bc3e04f7
bc2d9084
bb664b05
bb5c40eb
bc25b3c9
bc630662
bc75e8d3
bc01dbbb
3c648acb
3bc269b6
bbe5e345
bbbe6cc7
3c25be4b
3b072955
bb8e4f05
bab78933
3b34883f
3c7cfc9d
3c80d542
bc12f5fd
b9fe6293
bc0b1d37
3c82059e
3a423b2c
bc4885e9
bbcd37a7
bb23d6c1
3c0ad6fe
bc11b199
3c204081
bc677c79
3bb0414d
3b82b5df
3b802837
3bbc8281
3c753099
3c130d36
3a60442c
3c28dd83
3c85a525
bb9ea0b0
bc4c2912
ba2ec39a
b8e93631
bc2e766f
bb1bf9f1
bb4e497e
bc07fe92
3b6b17ef
bc9058fc
bc106b18
3c821055
bb5d4a11
3a04e07a
3c87e8eb
3c8b1efc
3c522859
bbc05e54
3c0ef26f
3c427f7e
3c356e98
bbcbf564
3bd161d6
bc024a64
bc071ab1
3c7911fe
bbde5102
3bbfa22c
3c042dba
3aff28d9
3c489067
3aefaddf
3c74353a
3bae136e
bc0dab73
bb7166a0
3aeec796
3ae3d473
3c61fb87
3c6e4163
bb6ff7c6
bbf66f1d
bbb8d70e
bc82be38
3b12b3d1
bb88d56f
bb2ba6eb
3c33a956
3c5d7b3f
bc760aba
3c5ceb4b
b7dff9d0
bc35174a
3c2bee16
bc48fde5
bb237af7
bc8b8cbe
3c6e658f
bbf05eb3
3bb97e2a
b927b327
3c6bef0c
bc19936c
bb8fcf5f
bae78738
bbc2ac2f
babac5b9
3c67c89b
3c3607f0
3c4ce732
bc76a169
3acaaa33
bbe23cb0
bc48b789
3c2aa514
3c3df38a
3c2881aa
bc364e0a
bc956a41
3c111888
3bd20a62
3adc17f7
ba027f10
bb07a54c
3c8c10cc
bc4e31ad
3c2e39f4
3b5c049f
bc32c6a9
bc8bb71d
3aa2f642
bb65d48a
3c0a4237
bbac6bde
bc8487c7
3b4193af
3bf9814d
bc27217e
3b6987e2
3b359e88
bc66a3ee
bc72db82
bc186bf2
3c858ee7
bc3df17c
38dfc284
3c3a2549
bc889546
3c621132
3ba304a3
bb28777a
bbeb696a
bc09dce5
3b07a69b
3b38e01b
bc0a041a
bc0ef885
bc000065
3c4f3789
bc7d5791
bb3c2904
bc814750
3c83d16e
bb1aa23e
bb80e4b7
3bd01eba
bbffa958
bc80df4d
3b956ced
3b1efdf6
bb407152
3b8fdb30
b95fa98d
3c1ebab6
bbe2ff24
bc87b778
bc400407
3c625961
3b84073a
3c89b790
bbf3dc2a
3c5abe99
3be63ad0
bb0d3db4
3bd945aa
3c3ccee7
bc7dc2f3
bc053faf
bc4e15bb
3b756cf2
bc6c5298
bc59352c
3c17f7c2
bc0475cb
3a4f4eb2
3c06dadb
bb89f0a2
3c05f0a1
3aa55793
bad349d0
3c4c7712
bc5dd3f9
bc4626be
b9a55438
3b55dae4
bc185cf9
bb165e95
bc0c755f
3c539bc8
3c4c1a7f
399726d6
3c3033b2
3c1c3bc1
bc6701c8
3c283dfe
bb7086e6
3c78d7d6
3c075e1b
bb9fb9cf
3c4b6e93
bb9542ae
3c5e9df2
bc283c62
bb0cfd65
bad69abd
3b4adb97
bbb8a0a1
babfd2ad
bbf1cd0a
bc1077c8
3b6a181d
39cd2e60
bc85991b
3b87b289
bc449144
3c2716e2
bc7a4f3e
bc7300b4
bb074510
bbc005fb
3b067a90
ba600d69
3be6cad6
3c6b2374
bad3f2fe
3bd9ffbb
3b4a6452
3be2a4b9
ba1fb95d
3aba12fb
bc557b46
baea8ecc
3bcb44de
3a2f56b4
3c3532ba
bbf3ba57
3b7fab7e
3c036eff
3c18000d
3b6cb71f
bb94bb6e
bb4b1425
3c0970cf
bbc6e03b
3bbb5771
bb8e36d8
bbc409fb
3bd53693
bc37e7ad
bc0560e8
bb2af385
bbd3bccb
bc868105
3bb213f3
bb42a1aa
3b993d55
bbadab74
3bb7c04d
3b0c732b
3bd13f1c
bc8a7fb4
3c094986
3c82b7c7
39476c21
3bb7520f
3be4757e
bc56feba
3c4724a8
bbc314ce
babd5162
bc377cb6
3b652d00
ba8bb305
3be032e6
3be905b3
3c76e18e
3c30b26e
bb42ac96
bc88e100
3c2793a3
bafc9d6c
3c43a50c
bc412138
3a176776
bba1cba0
3c8bd48d
3c7f5a45
3ae499d1
bc61347c
ba940a16
3b93a285
bc16bb3e
3b641f42
bc09e366
bb94c44c
3b78e87d
3c82f4e9
3ba8177d
bc3ddc34
bc8d3eb9
bbbdcd5a
3c2d87f1
3c7b3832
3c418c32
bc3f76d2
3b63a26b
ba96c532
bc8578c2
bc6e1d01
baf7f3f6
3c1427fc
3b1f5d46
ba053ef7
3bb198dd
bbee3a9d
bb7099ed
bc694850
bc47e9a7
3c82619c
bc1d524f
3b99f69f
bc0ecf14
bc11ada6
bc10ae2a
bc1d9ea4
3c7d8adb
3c4da7ad
bb33b6cd
3bf7cdbe
bc57db83
3a70314d
3c3f9b57
bc366269
bbec5303
bb315c55
bbb93fc5
bc012be9
baead45b
3c0201df
bc1c7b1f
bb83cd23
bc2e58ea
bbf72731
3c197a87
bc0d642e
bb54b313
3c0a70ad
3c848034
3ba20665
3bb6c125
bc60f1e3
3a47ce2d
3c783357
3c761ef9
bc03970c
bc2276d6
3c35274f
3c4e3381
3bdca661
bc21ed3b
bb6c5d4b
3c5e843c
3c86cc54
baf220ab
bc5dbf6d
3a52778f
3aedba2d
3c636a3c
bb9b89c5
baccd48d
bc4ad350
bc940a59
3c21a5c5
3c2b8470
bc14619b
3bc8b8cc
3c769e08
3ad439e5
bc6b8e59
bc0bfb2a
3c7d9e79
3c8b6b41
3c075896
3ba18cbe
3c8818e1
bba50044
bc517627
bc68d00a
bc6fb8e2
bc8cd984
3c128cc5
bb4e8ab9
bb3aaf20
3bcd6683
3bcc5b09
bc12092e
bc3de084
bb6def8c
bc81e85e
3c75bbf6
bc017c0c
bc8f0b63
bc87ac1a
bbd566fc
bb1332af
3c1a28a1
3c143771
3a7a27fa
bc372079
bb0f2595
baffdec8
3c86c0de
bc0b1dfb
3b286d6e
bb3e4d25
bbccbf00
bc835ce3
bba5087f
3c806332
3ba7c351
bbaa9668
bbf55150
3b104d77
3c200e39
3c8f33d7
3bc19412
3bbdf4e9
3c2805c4
3b7e23ea
bc7f2eb3
bc155a67
3a9c5456
3b2c288a
3c330347
bc51f84c
3c0edc40
3b00948c
3c1be4fe
bbf53887
bc880ec2
bc93b3b9
3bc472a9
3c11319d
3bf52408
3c1029fd
bc87675d
3c85b5f5
3b874ec5
3c0152ab
bbecf38f
3c6157b1
bb94861f
3aef9184
3be434f1
3af34f54
baae59ce
3c7c0732
3c0c6620
3aff3fd5
3c8810aa
bc1a0f0a
bc34d44d
3c845b29
bc554f88
38755de6
3c59c5a3
bc7d2084
bbe5ef55
bc4f1730
bb8c1d85
3bf0aa06
bb5a6823
3c58e56b
3bd09f03
bc8c5944
3bdb57ea
bc4cccbe
bbf11041
3aa8c9e3
bbea75fc
bbd2b1fa
3c4ccbfa
3c1d0b7c
3be69a5c
bbcc7806
3c85ad6a
3c3d4099
3c8eaa61
bc6cc18d
bafe00ef
3c9499b1
3bcc4f10
bbf21ebf
bc5e9eb8
bc888983
bc5715da
3c0990ab
3c885cfe
bb12a63e
bc536cec
3a410dc9
3c2b4155
3bc823dd
bbdb54ce
bb2fbca9
bc643f6b
3c2c88e0
3afab422
3bbdc984
bc9685f5
bc5cc292
bc7869ed
bb3b979b
bc1c1559
3c38e4d3
bbbbad28
3b644c7d
bc6141d7
baa1c77f
3c1be598
3c1ecca2
bc8dc805
bc8a2753
bc024948
bc36cda0
bb7c4797
3c28de95
baf16d6b
bbd901c8
bb722af3
3c3cf3cd
bc6c6d4e
3c55c4da
bc75e447
bc12363a
ba2883ed
bc75bf17
b98d4f92
3c7966fd
bc4833ee
3b8be4f2
bbfdab3e
bbf155bd
bb3256a1
3b3a1efa
3bf361c8
bc678dfd
bb983c80
3c282251
bc5cc6b3
3b6d1a9c
bbca3ecf
bbd1cda4
3b21a2fd
bc2af36c
bc07a7dc
bc878c27
3aa26715
3c2bcd71
b94e7eba
3c542d62
b92446b6
bc6f8c33
bb881ee6
3c536292
bc3de219
3c14b9f1
3c2a347e
3c12523b
bbc5ec76
bbd12a25
bc001fee
3a39ac8a
3b47ac92
39302c61
3c2fba11
3ba28645
baa97ab8
3c2c1cd2
3c31fffd
3c91a361
3a09ad4f
3bc73d86
3bbcd8e0
bc30f1de
3b141bd6
3c67c90c
bbdf4976
bc1c5af2
bc7619d7
bc965f10
bb8a1166
b9f8fed1
bac742ed
bb1ac467
3b9d87ec
3b129efa
3c248d58
bc1d0c9b
3c20a46e
bc6b4a17
3a5dc9ca
3c7c3d3d
3c561ed2
3b2fcdc1
bc451df5
3b6aea11
3b53519d
bbf2b1df
3ba8584a
3c8943d5
bba9a86c
bc865ee4
bb9b2272
babb96cd
bc75bb1a
3c007577
bc34ebc8
3c88e5f8
bbc8d92d
bc745d55
3b63ef35
bc7f31a1
3c776436
bbdfbaf9
3c85def6
bb16d76a
3c5e31cb
3b3f0c23
3c495dbc
3bd3d44a
bbd3132b
bbf933cb
3c4a5311
3bc5884f
bbcce9bb
bb021d37
bac163f4
bc33304e
bc68f226
bc8b2253
bc8ec016
3c7e86f4
3bd4a2ed
3c0cc493
3c854e1c
3b0cd609
bacbe9ce
bbf0b4ed
3c6d54cf
3c223f0d
bc7d4149
3b8999d6
3b9949d5
bc0c27ac
bc6b8647
3c7b2662
3b59ad27
3b6587eb
3bc16ecf
3becf19f
bc80754c
bc737867
ba6eb9c3
bc83ac41
bb35359b
bc6b5635
3bfab85a
bc6eaf28
3c02cce7
bc4dd382
3b8246d9
3b11a551
3c606f89
bbe0a617
3b06c73c
3c141a08
bbbd2c75
3c849209
bc4d48c4
3bda701d
bb628a5f
bbfd2452
bc03f6f1
bae236fd
3c2c40a7
ba374f7c
bb707736
bb45487d
bbd58443
bc7a995f
bb3c827d
baea1417
bc83c5e1
bbaf3bf8
bc511ee6
3c5e0fb3
3c339d5f
3bed434b
bba70213
3b2dffdc
bc07be6c
3c08c6ad
bab078ae
3bd11d41
baa30b2a
bb65a25c
3b924e03
bc51d05c
39ed1c3c
bc62e9f2
3c570f75
3bd8fbf4
3c5d7d04
3c7ddeaf
3bf2a89d
bc2406d2
bc1791b8
3c24f727
badff664
bb5fa462
3b09401f
38c62e4d
bb7b52a5
3c02530e
ba266983
bc6644e5
3b7a5890
bb2a6a9e
3a608a19
bc612d4a
3c4c00fe
3c30bf70
3c17ec39
3b0a92ab
3b14ec2d
bbac7f47
bbd52932
bc293609
3bb811d9
3c5131bf
bc2704c2
3b3993fa
bbb007b6
bbe952ea
3b492c59
3c75078c
3b69e867
bb37f11e
3c88383a
3aba3bc8
3bacfea8
3c6c1d65
bc00f474
3b9a8f76
3bf19776
bad6c33d
3c49aabd
3c389705
3be22d33
baaf5fdd
3b8c45f2
bc61152a
3c8d5a50
3c6aaf4e
ba89eece
bbbff523
3c7815d0
bb90c0f6
3b59b444
3c8a6a48
bb888444
3c154186
3b09c23f
bc0445a6
3bdebdfe
bc1ba871
3bc33681
3bb334c5
3be817ec
bb1ae1dd
bc02c19b
3c16c78c
3c3f3322
3c771e62
3c365451
3a8fc291
bc578627
bc0562a9
3c8bb5a7
bc03bfdf
bb9efe3d
bbb4c43a
bb2bb287
ba231953
3b660d2e
3b98d808
3bf14971
3ad55cfa
3bd30eca
3c811b3c
bc8160fb
3c4550b9
bc349418
bbb0b5f1
bbe1d0be
3c2979fc
bc85b5fe
bb619b03
bb9aceb0
3b5d5376
bbe7b363
bc90e58b
3c20d543
3ac7cd3c
bc150618
bc14edcf
bb664b45
3bbd130c
bb2a565e
bb585a63
3c8c9808
bbfb8be7
3b83ed1d
bb4680a9
3be76a1c
3bd9db44
bc3a17e7
3c2ded46
bb4f6c8f
bb92dc75
bc3d6afe
3c512525
3b782363
bc3d6083
3a4bc566
bc15afbb
bbce525e
3b7b1a12
bbdd9aa8
bc1773ac
bc7abf14
bc142081
bb4c9210
bc86b105
3b215ad5
3c20e0f8
3c69d776
bc0261b1
bba30651
3c89990a
3c72d77f
bc1b0fa9
bbe59404
bc276a6d
bbe4b27a
3c879d9a
bbeb464a
bc59467d
bc88dde3
3c72cb5a
3c0c66c6
3c08b5e3
bc0331ca
3968bbc9
bc50eb3b
bc5b08bf
bb9e39d2
bc0078f9
bba427df
3ae46d16
bb895357
b9469968
3c8359cb
bc0d4f28
bbe94e94
bac976e0
3a8596d0
3b65d6f0
b8b09488
3be19164
bbb73161
bc00e53c
3bbb5c5e
39a33307
bb7a53fb
bbb4b6bf
3bd3f04d
3b103cdb
3b749110
bc3fda12
ba349f26
3c1e958d
bb3e7520
bbbf2904
bc5acca3
bbb67c35
3ae42bb9
bb5eee56
bc02ceee
3ab4af27
3bd3a2cc
bba92a1f
3b83b5b1
bc4bb82c
bc109261
3c405735
bc33011d
3c222412
bc5865ac
3b811633
ba7a61b0
bc809028
bc6bd3db
3aae62cc
bc80c6f5
3c3df014
3c88957c
3c7b5aec
3bb500d8
bc4b08d5
3b9f6b3b
3c0ceef6
3c207057
bc46f1f4
3c8efb01
3bfa0cf7
3acd65ad
3c82de20
bb3e43b3
bbbb04b0
3c5e2b12
3c87d6e8
3c22ff16
3c96b00a
bb3f9440
3bbf8307
bc7a3767
bc87f3c5
bb54d721
3c950e53
bb8b8f6f
bc054bcf
3c5f2680
bc48a61b
3c331872
3c767a10
bc810679
3c08c04f
3bb0098f
3bd76bd7
3abf0711
bc7c0984
bc161b9e
bb6c3b45
3c024118
bba5fd6f
3c1bea8f
bc84ee75
bc2a5b40
bb9067c0
3c5a3d96
3b39f472
3c3e2f65
3ba951f6
3c4a93ae
3c86f77d
3c02fe2a
3c89496f
3bba4ef9
bc019b98
ba87e023
bc0ade75
3ba5bc16
ba422add
bb1ab0c2
bbc3b90c
b90fd6e7
bc1d83e5
bc13bebc
bc352963
bb97061f
392cbbe9
3c31385f
bc1d7801
3c836c24
bc5a2a55
bc2c555b
bc356060
bc3041b6
bbd19841
3c132386
bc4773eb
3c8908bf
3ba28f39
b765d90d
3c25f517
3bdf0a0b
3ab6153f
ba91f6e3
3b4e28f6
3c6ea64e
bb3613b0
bbe1e122
3c28d379
3c6469ed
bbb9afd6
3c3b163c
bbf277c8
bc6b46ba
bbeb1d20
bb985267
bb8ae7ff
bc525657
39c38e01
3aafbc57
bb24447a
bbdbb623
3bd87ebc
ba641992
3b52ddaa
bc0a454e
bc5dfe2c
3c78c916
3b870669
bc7b312d
3c771c39
3c1116c8
bba3d213
3b53f042
3c462a29
bc53f98f
bbde8c5d
bc64bc9d
bc8146a5
3c36f3a5
3b812d9f
bc2e99f3
bbd3af5d
3c709bac
bb39ac1a
bb86726f
3c846a6a
39a32af9
bc361391
3c93aedf
3bd22565
3a8ba2ea
3ba5bb53
3b63172f
bc29347c
3bfa291c
3c62c927
3b436791
3c2df1eb
3ba59358
3ab7e8dc
bbd9aa87
3b8ec6b1
bc675c9f
3c014f77
3b217c9b
3c1e22ac
bc76c328
bba3e6cd
3c6b6f49
3c399bc9
bbf95d3b
3b03235c
bb0fdece
3c8b4e7f
bc25e870
b7e42b8e
bb8ac839
39b6b0d7
3c24d747
bc95086c
bb990475
3bad3ff7
bc8acc40
3c1fd5b3
3c58ed04
bb85e292
baf883b5
b92f2efa
bc17dbaa
bc4510d7
bbfe8b72
3bbcc665
bc1ef3f5
3c7fe73e
bc3ae601
bb60cab1
3c8b2f0b
bbabef25
3b35b3f0
3b8700a7
bc34955d
bc5a6470
bbff6f12
bb27910b
3b266e20
bc72eb13
3bab2e21
3c3c3de4
3bf4d946
3c42ca4b
3b6a7391
3a556a55
bad97038
bc1dc3f9
3c0a307c
bc50239e
bc38fb9a
bc29f59b
3c4163c8
3b5a853f
bb6972b5
bb82c392
3c39e768
bbafc7aa
ba4fbcf5
3c072da8
3c3d2af6
3b907324
3b037a1d
bc810b3c
badc8a27
bb4e9734
bb34bbec
bc3198a0
3b915324
3c873290
bc2b002c
bc2d8e13
bc3b413e
bb45dbf5
3aaf1f12
bb9bb08d
3b5525ef
3c041f87
3be83388
bb4361c3
bb7b7023
bc567160
bc0d1442
bc13cf94
bb148ac0
3b08411b
bc72a833
bb649b9c
bc0c8db5
bc769491
3c2c308b
bb82bedd
3c1949b7
bbd48697
bba2324f
bc8b6a61
ba44d82e
bb3b1e0e
ba104088
bb27381b
bbbaf842
bc031ccc
bc845e02
bc93394e
bb579252
bc00bb98
bb7ccf2f
baccbfb7
3c28994d
3c852a0a
3b9a5bb0
3c0d3199
bc126da5
3bded7df
3c8c5e60
3b8b3fe7
3c7cfdf8
3c4cae09
3bb43203
bbc7f5e9
3c00eb21
3c0c8799
3bcd1e52
bc0dcdb5
3bb4147e
3b8f6a6e
3c14b142
39922e0d
395e233f
bc05b1c7
badc167d
3b301485
3c8a5670
3c65a536
3b0ffebb
3c070f2c
3c818050
3c0c6df5
3b8f6808
bbf09507
bb944dfa
bbdfe1bf
bc858da2
bad4f24f
bc8a13e2
3c82d814
bb302091
bbc14923
3bbdc5e9
3c190ed1
bc516060
ba681c67
3bff724d
3c89413a
bc3ac16d
3c5a33c6
3c6fdfa6
3baf2106
bc47228c
bc346776
3b4f3d95
bbf41130
bb615805
bbf8d1b8
3b3a8d15
3c14ae44
bc64fffd
bb0c66c5
3bc63ef0
3c421fd1
bb3a9b7a
3c66e738
3b8c2c4f
3bd66726
3b673670
bc67e8f9
3a9799cb
bc71d5e9
bc4f1884
bc1ebc2f
3c33b198
3c470580
bc1c37a0
3bff1921
bbcc9b39
bacc377c
bc604511
bc3796c8
baa2ee71
3b949088
bc5f92e2
bbf1daf7
3c326562
3c1a208c
bbbb1964
3c497f9f
bc85c799
bc135042
3bd57713
3bed6aff
3c500330
3b6d778e
3c73ad1f
3c257a35
bc66fba4
bc3ff5a0
bc4a87db
bc590740
bbc18fb8
bc27b0b8
3bd4f25e
bc822468
3ba55000
3c09b175
3bff70d3
bc3510e9
3c29333b
bc5a3155
3ba2bd8b
bb65ffd3
bbc79524
3bfe7c27
3c1f312c
bbd6165c
bc74c5fb
bbcd6c49
3b7cc7bc
bc6e7454
bb9bf018
bc824cd7
bc3e5ada
bb90b92f
3c725fa0
bc1e873f
3c9310d5
bc427c58
3bf96766
3a56ce58
3c2e5813
bb0cc8e6
3c296f99
395e2565
3c374978
3c366381
3c55bdc6
ba095611
3c741c21
b9977f49
3c5fefd6
3c80311b
bb634cb8
bc85ce0d
bc373294
3c64f163
bc45f1f1
3c8ca350
bbf68d5f
bc819d8d
bb58962f
3c0ebeea
bb05ad7e
3ae12af5
3c873102
bc6db339
3c1f5fb1
bbceafac
bbc28d70
bbf88253
3b5fd796
bb71b427
3bec78bc
3c8650fd
bb0a5e68
3c25accd
bb8d18b8
3bdde864
3be3c467
3c4a3afb
3c23e30f
3c0429a1
3ab92276
bc46ee36
bb0e0bf6
bc11f39a
3ab26c8a
3c85e15c
bb92910b
3a552891
3c80e0d3
bbc5fa44
bb6199a7
bc39ef9d
bba1be1e
bc69edb7
bc36618a
bba3b31a
3b25796a
3b060042
3c577ff9
bb75cf69
bc85cf4c
3b1b9315
bbeea15e
bbb251ea
bb6dad28
399f158d
bc7b179f
3bbd850b
3c646f4f
3bac64f6
3c650a69
3b85e5f1
3adb94c4
3ab2047d
bc281a7f
bbcca36d
3c177c58
398c628b
bb9c2364
bb869c6b
bba768cb
3c7de8d4
bb006a33
3bae4c88
3b4f0366
3c7f2070
3b8a893f
398c705e
3c8356c6
bc14da2e
bc03f996
bc94e325
3c033348
3c280de0
3bfb18b2
bc5f90b9
3b1b5ea3
bc49979e
bbedc0b4
3c141b83
bbfc21fe
3c265088
ba996041
b998acbd
3bd18a21
bc5524c6
3c4831f3
3b890a28
ba085b59
3c2cca1b
3baf1c9d
3c3c9e19
3c12daaa
3c3fee0d
3c9048ab
3ba40005
bb8df054
b9c16840
bba3d4bc
bb43bfc0
3bc55c94
bba9a8d1
bb0e68d3
3b299cf2
bb42bb55
bc53a662
3b25fe1f
bc1a8d69
3b9ccc67
bc627d53
bb898443
39d28381
3c1b5478
bc8bc762
3c2f00ad
bc6f2540
3c1f0f61
bb3516f4
bc896d1e
bb807826
3c49d3b7
3b8bc03d
bae1aaef
3b1c6c90
bc47313e
3c44f4c4
bc25730c
bc7ce1b6
3c4315a2
ba3fa8c4
bbe831c9
3a16a23b
3c5e7802
3bdf1179
3c61a821
bb1b04d8
3be4cbee
bbb7d77b
ba27595c
bbc40759
bc41920e
bbe55956
bc09b14f
bbdd8988
bb88a85d
bc606145
bc37ad04
bbde99b4
3c5d0b39
bbcee9ca
3be53815
bc1bbd13
baef8135
3c3045b3
3c4f2cf5
bc534b65
3c75bc94
bc4a8e5a
bc79ab85
3ad5d034
bc09081e
3bf1592d
3c75b9bb
3b0f9f45
3c598a66
bc69835b
3c0e0a01
bbe4cb4d
3aa2a858
3b2939dc
bc448912
bb1dd201
3c264902
bbd38735
bc49813d
3bfc007d
3b2a44b3
3bdf8b94
3bc1b426
b88b0a8b
baa9c6ec
3c85842a
bbed58c9
bc422ca0
bb632f06
3b4bce53
3a928acb
3c41d303
3c120d73
3c2dcfae
3c25a114
3c4dc82e
ba1a9e49
3bac614a
bc8e394f
39537b68
3b008032
bb25458e
bc1fad23
3c80a8c0
3ae42e4f
3ba6eb5e
bc584efb
bc914214
3c19a5c8
3ba1435e
39c31c75
bb57a3e3
bc37bf7a
3c6afa1a
3a579281
3a920765
bc279431
bbab9395
3c62fa42
3bd8b81d
bc35d6fe
3c841ef5
bbc0f144
bbca8b9b
3bd06fbc
bc0e6730
3c38f0ed
3c6c5984
3c868532
3c5bc7c8
bbe8b4c6
bc5cd959
3bec09d6
3a98ba4c
bbcb5be1
bb2976cf
bc2ebbf9
3c57a468
3b829ef2
3c855587
b9226704
bafacd2a
3c84abd8
3ae0d735
3bf83648
3c5d5958
bc45a096
bb32f9b9
3c85927f
ba9c80aa
bbe3c847
3c6046ab
3b3f52f4
bb5ab3ab
bc0d4a95
bc333a01
bbdd8dba
3bb7d13b
bc7f983b
bacbe50a
bc519a2a
bc2e59d2
37b88ca4
3be6c06b
3a8ce3d4
bbccbde5
3aaa130e
bc34401a
bc3b0820
3c412827
bc0d1335
bbf33afa
3c17c6bc
3c34fe6c
3c8775da
bc1071ae
bc623726
bc8dcde1
3c59afd7
bc9266e7
3c7f6a3e
ba65baec
3b39d91d
bb8a28fd
bb03f927
3b03f69a
3b568548
3ba24c25
3c753f5b
bba737f7
bc83c8ec
bb772bd3
bc85469f
3b708ae0
3c439d37
3c20e29c
3bc61aa6
3c81f1ab
3bc4e32d
bb7abd90
3c67ecdc
bbb412a4
bace374a
3a8015f6
bc46d1ef
3bfd2371
bc017b4d
3b18b7e1
3c27f1ad
3c7d4cf1
3b299e0d
3bc2a729
bc82e768
bc88942d
3bf9fedd
bb9e1cce
bb65d8fc
3b43660b
bbf8a0d5
3bae3b63
3c383ffe
3aae0f25
3a985826
bb814ece
bb92cfa4
3ae0476d
3c6ca7af
3a6ea2ad
bb84fd89
3c65c5af
bc882944
3ab0ee1f
3bd499e7
3a1ea185
3ae7f934
b7734507
3c76dbc1
baeb0f02
3b9183f2
3c7f3b97
bc54cf9a
3ae19017
bc2340a2
3be4a9d4
bbe2a0bf
3c5af5d1
3beb5e3f
3c8d1319
bc16813d
3b70df3b
bc0076e4
3b46b2cf
bc63f730
bbba1434
bbc8fdb1
3bc2aae0
ba928191
bc78e0f1
3a017ec6
bc075317
bb3b532c
bc54817f
3c01dec2
3c88a59a
3b4cecb2
b9f903eb
bb4b8f94
3bd016b5
bbde6ffe
bb5785ce
bc3568d1
3c7bc477
bc8e3d34
3bfa594d
3c1bc1b1
bbe2a047
bb53f4fd
3c01d7a4
bb7d6241
ba9c755b
3c93586b
3acf8e84
391c9dca
3b97fae7
bb271314
3b6cf5a2
bc63e7b1
3c15be61
bc64a06a
3b68b760
bbda142f
bc0919a7
3c942878
3c8a7188
3c74f02f
bc1a5605
bbfc6fc8
3c8276a6
3bed422d
bc1a6c9f
ba1a2871
3c89fc30
bbc86669
bb730223
bc0a8510
bbe7d090
3afa8a64
3bb6b47d
3c314c90
bb98cf40
3c085cae
bc7dae59
3b8fc160
3baca076
3c038723
3c5b293b
bb07e22a
3ac6167a
bafd5c48
3bb17d37
3c473dfe
bc8b18cd
3ba4290a
bb4d70aa
baaa7a5f
bc2ad895
bbfbca5e
3c8aeb8c
3bb10ff2
3b7d544b
3c55f89f
3c1cd3e8
b88f71f8
3c0df359
bb204bb6
bc167f5f
3c0669c6
3c1a6a16
bc6f7d42
3c2d5493
bc3fba63
3be60c64
35d00998
bb6d368b
bc30f6f3
bc40a167
3a37401e
3c025d86
bbf61faa
bc78dec2
bb9e2f98
bb67655d
bb209014
3c112a13
bba376dd
3c64f19b
3c1ac2c2
3b36802b
bc6857d5
3c38760f
3c20543a
3c3db4f9
bbe14928
bc642e61
bbd8d911
3c7afef7
bb1943da
bc577f8a
3bcbb209
bb9dfa7a
bb6448ae
3c81388e
bb383f95
3b93d99c
3ab7c7c7
bc480d31
b9a37826
bc92f8b4
bbe88bd4
bc003c6c
3b474966
3c6c1c33
bba7f857
bc2ee5f9
bc472b7a
bbf8d346
3c87e0cc
bc0f6be5
bc21ca24
3c4c0ccd
bbf533c9
bb7711c9
3c2db43d
3c0dfe88
3c5a0614
bbadffb6
bb96dce0
bb77ef36
3bae740d
3c6066f7
3bb9bf94
bb316398
3c61bd75
3c18c80b
bc57a913
3beb98a2
3bf7352b
bc47bf07
bc2ef3f5
3c7f7272
3a9aa580
3b44db22
bbc12f0e
3c20f6de
3c468c88
3c92f11c
bc11811c
3c5492a4
ba3d8b33
ba39aa64
bb96e371
3c96ae3b
bbd28a3c
bc82ba00
3c52633b
3bc2ae19
bbea32a4
bc3760a8
bc0ce704
3c85ee04
3c0753c3
bb2c3484
3c535fc5
3c0292fd
bb9edefa
bbdd3bbf
bc603a40
bc4457ac
bc758106
3b9adfd1
3bae37df
bc603537
3c67054e
3c156217
3c22aec8
bc3f7031
bba26b1e
bc80bb18
3c58746c
3c1aa4a4
bacc4dee
3c09c83a
3c698e06
3aba8761
bc475db4
3c13093f
bab938cf
3c8f81b3
bc601120
3bd85eb3
3c736d9a
bb96384a
bb03d8a8
bc1e0fd8
3a7d64c5
bc89fccf
3be6a230
bc88ccad
3bf556d1
3c2ec38f
bc8a852c
b83aa583
3c506b04
3c453fea
3bf881b8
3b0645fb
3c3188d7
bb1a54de
3bdca0de
bc8d051d
bbb03530
bace5e1c
bc53418f
3bb49e5c
3c9565b8
3c2eb28e
3ba44be9
3c4b1191
bba8f7d1
bb6a2a04
3a1947e5
bbf19f32
3badf84d
bc0408a1
bc726e17
bb8e4fe0
bb2ab184
bbd832ab
bc5bde9c
3bd08027
bb43f3c6
bc04b904
3a2ddb23
bc01c05b
3c57a011
3c8babf1
3c378d84
3bc551e8
3c88a0c6
bbccf779
bba1ff21
bbc14965
bb97fb58
bc574155
bc57247f
bc84d60d
bad691d9
bbd91280
bbd998ce
bc17ae83
bc289ea2
3c3ad56b
3c42200e
3c321010
3c34ff45
bc573399
3bab0bf9
3b242223
bc8962a0
bc308735
bb6e44b5
bc02423c
bb37e4f4
3c30f8c3
bc0d985b
bc5826ee
3c6ba38e
3bb60573
bc84ab10
3b272ffd
3a9c940f
bc705f50
bc93451a
3c6ed0b5
3a16d9cc
bc64ebb5
baae3b11
bc5bb5c2
bbbc7df7
3bc9a56e
39eedbfc
bc1a7fdc
3c152bc0
ba88dc32
3ba5b43a
3bec4add
3c0adcef
bb47ad58
bc132ae0
bc124bad
bc61ab3f
3c0bd291
3c01e6f2
bbc5844c
ba01fa52
3c72776c
bb2bdf5b
bbe9cb0a
3b65e8df
bc905dc2
bc8a92d5
badab2e9
3bb14e4e
39664d04
3c40f309
bc35d1b9
bc03d041
bbed7f48
3c057387
bc2cfb48
bc00aa11
bbd98d67
3b00ee3d
bbefc157
3c5a73de
bc51133d
3c156629
bc4b3183
3b5ea1f3
b9a23719
bb9f21ed
bad09a51
bbd5289a
3bfb70ba
3adbcf6c
bc39ab14
bc556168
bc23bd83
bc2f73ef
bba32ace
bbaa9f19
3c199f93
3c8c07b6
bc36fc38
3b059f51
bc920e88
bc14cc47
3a89a9c9
b92f0406
bc119b02
3c89f967
bbf75ac6
bc200b79
3c936ff7
bc80bbca
bb9050bf
3b6e90c2
bc1f6007
3c7ed400
bac5c57a
bbe1641e
bc2a8875
3c42810d
bbcc9d27
bc26e8e8
3c96b7ae
bc180f18
3c2d50fb
bc887566
39833916
ba5a11c9
bb939e3e
bbf6697c
bc5f399a
bc2763c7
bb5b2ff0
3b721553
bc267613
bad28c88
3c3871d1
bc1a8195
bc695b67
bb078995
3a9acfad
3c81ccf1
3b8e0abf
bb1a1a6f
3c897e98
ba270c40
3c759694
3a11e3f6
3c4ad562
3c695929
bc882c1f
b95f850b
bc773db7
ba36b03c
bc428aeb
3c33e57d
3bead21b
39b83008
3b8ccebd
bc81daee
3bf1f942
3c8d90e5
bb9033c4
3a0edd75
3c563fde
bc8fab49
3bc1ee9e
3bda515a
3bfea103
3c31b282
bb879f80
3bed8027
bbae2465
3bc2528b
bbbbef4f
3b9ffaf0
bc604fea
bc6fdb21
bc570e88
3c93c22a
bc6383b5
bb876633
3c9a2b71
bb6199ca
3bfdf00c
3c988a96
bc2aa987
3ba352e7
bc5742d3
3a7508ab
3b242858
3af4e341
3c771707
bc09750f
3a20a744
bb1d9552
3b047ee6
bba2ded4
3c062977
3c20e3bd
3c684376
3af675fa
bb38b481
bc2f786e
3c84e381
3c0a01cc
3c5f7ce7
bc5fea6b
bc05a5e7
3c6db1a2
bc81b59a
3b7f3b81
bc2f7846
3a72d3e1
3c077374
3c57b052
bc180364
3934b2ad
3c1d6e04
bc71c536
3c7dcd9c
bb90cbc6
bb7c740d
3c5309f1
3c1d75f7
bc56f921
3beda008
3c27e565
3b34e8bc
bbb3a222
3ba60a45
bac6967d
bb9f39bf
bbc83699
3c33f14f
3c4a8dd7
bac38663
bb7e9423
bb9f4a89
bc573678
3b9d9f69
bbb68bee
bbdaf36e
3c1143e5
bc7c60ad
bc4a517a
3c847f5b
bc6a1e9e
bc2d158c
3bfab634
bc577716
3c15ec06
3ad6f4a2
3c836304
bc823c74
bc4434e0
3c22e72c
3c63cf8e
ba3be74c
bc36a3ef
3c6fc997
bc142270
b9eca106
bc466431
3bcdaf22
bb277d2e
3c5fbc1c
3c8b529f
bc7e0271
bc583c77
3ac11da0
bc483125
bb9a56d5
3c405853
3ac83b07
bb2efbca
bc017779
bababa51
bc4048a8
3b4cbcb2
38a0da00
bb15f50a
3c0933ba
bc85a58d
bc83f20d
3c3eecf8
3c8004d7
bc849a76
3a410af8
bb41828a
bc5fc2fa
bc5ca437
3a966608
bc87c233
396de7b6
bb857c1a
bc4b7333
bc21cb37
3af488b1
3c4ed7e2
bc88f83e
bb9722e1
3c4688a9
3c760fdc
bbb12b40
bab6470b
3c85eb2a
3a2db58e
bbe690f0
3c47d510
3b9c467d
3c0a80a3
3babff6f
bb0c3547
3c2f1b97
3b0adc81
bb013586
3b8a1578
3bae41d6
bc21e4d0
3c1d35e2
bc7bef04
3a913fb7
3c2caad5
3c0860f1
3bb8e823
3c107432
bb5986bc
bbbdd0ca
3c0ea97f
bafbce98
bc486148
3c0146a9
3b3ea673
bc60e96d
bc2d0806
3bf39082
bb352b1f
bc78009a
bbdd972c
3a61ad9e
3c497d94
bb5d9094
bc27d8d6
bc30090e
bb577f65
bbaf121e
3c455403
bc8fadfb
3bb933a8
3c1c8474
3c078961
baaea795
bc7bbb9e
bc142e96
bae41992
3c7f1701
3bc75692
babc871e
3bb4b133
3b5f2c2d
3c7102e3
bbbb76e8
3a0f269b
baffc26d
bc241be0
bc0263aa
bbbec93c
bc3b2ffe
3c544f7a
3c59f3ef
3b8872ff
3a02e77b
3c0c867a
3b5c0282
3b3fd65a
bc6e48de
bc3161b3
bc6287b8
3be03b6e
3bf020e9
bbbbb176
3b298505
bac0d729
3c51bc2a
3ba3f9e5
baca551b
3c5051fe
3b994615
bc7e7bd9
3c3c20a2
bc54df89
3c6e979c
3c53cb67
bc0cba37
3c892d02
bc0b4386
bba2847e
3c5ed842
bbf2d48d
3c04e06d
3c1b6e24
bc25e870
3c6199d3
bb826268
3c8687da
bbab410e
bc307578
3b8365bf
3c880add
bc846dc1
b9b97205
bc30fe5d
3c5cf352
bb7f1afe
3c0d91c9
3c7cb0e9
3a8606d1
bc3b4579
3b023b95
3c2ae979
bc560007
bc1e0597
bc766a11
3c879d69
3a3acc6f
bb107d95
bbe0f670
3c457461
3c32f12d
bb8941ed
3c3e2b04
3c7d4396
bb545607
3bab673d
bc6d9fed
b9651bce
3c36a39e
3bb75b32
bbb0b034
3c8dd7d9
bb842d36
3c84372a
bbccbe8c
bbab5302
ba994ec6
bc3f1ac4
3c5a06f5
3b162824
bc04922b
3c5420f0
bc855eba
bc882ee7
bb8874b7
3c143288
3c2b6724
3c28aed5
3b4a9fe1
bbbdef57
3c8d3e27
bc067c8c
bb93f25b
b7de4c51
bbacebda
bb2eeac2
3b072169
bae8ddc7
ba9fdb5b
bbcc7cfb
bc741cac
bc49ce69
bc91c18a
394550d8
3c60c3ed
bbd40c20
3c89d09f
bbb0fb6f
bc2df6eb
bbcb40a2
3bb5218f
bb122a8f
bbc8a3c0
3a8a7d50
3c751da4
bc76e5a9
bbd8ccd1
3bc180c3
bc49d653
3b94f8f4
ba71af16
bb4178d3
3bbae161
3c10694b
bb266198
3c64f0c5
bc409e7a
bc3f7b2a
bb82c51f
bb3a02f5
bb955660
3c8b83ac
bc8a98a6
bb2a58de
bc13d5f9
bb8e1110
bc099bdc
bc662a17
bc6777a8
bc83762d
3b999789
bc22003a
bb1f276b
3b99ba9c
3be6e6d0
3bb2efb2
bc28dfb9
bc35b087
bbb80589
3b5750df
bc2af397
b9b3007c
3b25a011
3c1bb00f
3ab2399b
3c82f441
3c382b5c
bb8cb192
3c17a9cb
3b37893f
3b8adb12
3c35cee4
3a149f4e
bc58c512
3bd55aa1
bc2a7a87
3b8b1683
3c7c975f
bc08dbc6
3bbac18a
3c70a256
bb93a713
bbd397ed
bc2a03f4
3b63eb7c
3aeada76
3b649d5f
bb2799e2
bc272a2d
38a7c5ac
bbdbe53d
bc41943f
3c8b854d
bbf23af0
bc39738c
bbc54447
bbdef18a
bb18acd7
3c5278ea
bc0304cf
3b68ba7a
3c142939
bafaff29
3ba900f8
bc630915
bbd29f2c
bbc1c0c2
3c7c95c8
3bbe991a
3b6a5de8
3bb1b135
bc1fc702
ba319086
3c01caad
3c0ed6a6
3c138797
3c1b78e9
3a957aa6
3c54e60b
3bb75238
bbd914fa
3ab74698
3c4c1f85
3b79b158
3c5b93d2
3c071796
39c58914
3b839fdb
3b186965
bc04c272
3be8caa4
bc1d4b1f
bbb66e20
3c49a659
3b8400b4
3ba14a95
bc84b267
bc555a5b
bc0a2c4d
36f6a005
3c04cec5
bc560d76
3ac9a753
3be70873
3c71a3da
3c5095ac
3b0ea0f6
bbfa9772
bc199fd2
3bec1c5a
3c84f9cf
bb4e96d1
3c2839ac
3bd5103b
baed5cff
3c313acf
3c414420
ba6f8897
ba3e3653
3bc7b9e8
3b986477
3aee3c89
3c14d115
bb61da43
3c60f36c
3b8bbe1a
3ba3949a
3bbd147c
3c6d02c9
bc1899ad
3bf39765
3c6dc650
bbbdd03d
bba050d6
bb73e3e8
bb8d52fc
3bafcc49
bad6841f
bb935152
bc1cba9d
bb13d2a8
3c317f97
bc51bb9a
bc1e981e
3b69228c
3b55f8ec
3be2394a
ba944685
3c165bb6
bc58d326
bc0f8447
bc786d8c
bc2b3a38
bbc09863
bc5c139f
bba88b42
bb4c64ae
bbcbf4ba
bc0b8d6d
bb63d0c6
bc6174fc
bb6e02a7
3b948a42
3c18adfb
bc4e6d42
bc545a61
3c308ef8
3c75a1e4
bab60daa
3bbbf180
3baa5b8b
3c71fb68
3c71187b
bc4b2a41
bc273c30
bbd664b5
3c69bb21
3bfd3bd1
bc1c9837
bbd32001
bb1df1ee
3b148cea
bc2d8ab1
bc868c63
3bcc0599
bbb66b0c
3c3327ec
3c4fd8d9
bc6e8a8d
bc1c9ff0
3c09c73a
3b0f6e84
3b1b63ec
3ab079fd
bb70a3f1
bc3c68b4
3c95da65
bb8cf21d
bc079dac
bb7147fd
bc2e6b51
bc14513d
3b5def09
bc1858ee
b995800d
bba3d38b
bc7bd751
3b88ba3b
3bffacb3
ba5aa5d3
bc31ecb9
39f1591e
bc4d0b6f
bc0d9e0b
bc86a3d0
3c1ebfd6
bc6f0e34
bba5297f
bbc9d75e
bc81549b
ba53dda7
bc001ccc
bc7d87f5
bc18bbf2
bbd5a9da
3c84f565
3bb44302
bc252e71
3c42d280
3a987e3c
bb392765
baaed2ab
3b7ddb15
39b4268e
bc197605
3b2dbeeb
3988e7bd
3c797f76
3ad654b6
3c2cce37
3bbc5a10
3b9225d9
3c6abc13
bc036e6e
3c60dc9f
3c39da9c
bc1aefcd
3c4f35d2
3c16af95
3c4e07c7
3c98a759
bc2f474b
bc2c2008
bbe055a7
bc0e70f3
bb9599f0
bc199163
bc6afb3f
3aca9600
bc5ac9bb
baa2b351
bba8365e
3c9362b2
bc38440d
bb9cc4fb
3bec4e25
bc714cb9
bc343b10
bac90ee3
bc4db32b
3c6bbf22
bb6db8ef
3b93f770
bbd97c40
3c15a077
bb68e739
3b0258cf
3bc43593
bc44f843
3b3a883c
3c4fbed6
3c5e558c
bc12e26d
bc4c846b
bc917570
ba2138d3
3beb5688
3c3944d2
bb346f4d
bc8575ff
39494e82
bc3d3ebe
3b557722
3c8c5f7c
bc2d781f
bc25836d
bc5dcb90
3c363bb2
3c32e645
3b5495de
bb7138ec
bc80748f
bc51f29e
bc7f022c
3c7914c0
bb38a523
3ad3032e
bb9404d8
bbe94dfe
3baf2a38
bb0d15ce
bc3f3026
399450fd
bc77e14c
3b70d52a
bb1227ba
3c3c2c75
ba707356
bc878778
bc499ad0
3b88b677
3c04da78
bb04470d
3b3b735a
3ba9f7f6
bbd4e381
bc3e6c0c
bc4c4b60
bc49c635
3c4ec35b
3badc5d4
bc8558ea
3bafb602
3b76f833
3c58f691
3b2f3c36
bb91b9eb
3c5d79d1
3b6dab03
bc088b4c
3c835dbd
3b996837
3b93ef61
bc53bfab
3c7836ec
bc13a2dd
bc643b44
bba67455
3c1b68a8
3c62f08a
bc09919f
3b25eb55
3c8585c5
3b255677
3c1e46fd
3bf6cb52
bbe8adc3
3c1d0a6a
bacdecd5
bc270713
bb97904c
3c76bc6c
3c252ab8
3b8624f5
3c61206e
bc8a5a0f
3b24c49f
3c85043d
3c781120
bbb7bc0d
3c1db4bf
3b48477e
3b5b3632
3c44ced5
bbcaac7f
baa171bb
bbda44a9
3bcb5ec3
bc42668c
bb00abeb
b9c25c1f
3adf59d3
3bea399c
3bae95c6
3af0e43f
bc5cc88f
3c14fc58
3c4325f6
bb8865d7
3b4512a2
bb132e5b
3c5ce755
bc7ac1d9
3aec12ec
3c230a54
bba43f4b
bb5bd989
3c8221a5
bc538ab1
3c8437f2
3c806897
3a7a1b7e
3938dbd4
3c72602f
3c82ffe4
bc711b80
3b852971
3c41e69e
3ba82b2b
bc057e52
ba833a7f
b633da0d
bc5294a8
3bd9b4dd
bbb3d031
bbde515a
39aaa7df
3934e8e7
3c18c6cf
bba8abea
ba309c1d
bb3ef056
bb873c52
bc2b0eb7
3c69c8d6
3b3a48cd
bbbbda93
3c681c51
ba9fef38
bc3bc42d
bb2a283b
3b5b7f6d
bc43df47
bb26e667
3c57a48b
b9bdde8c
3c91cb4c
3c83d005
bc6d58b3
3c139283
3aa6d98d
3c0e439b
3b0b383a
bc194486
bc7c8e4e
bc3199f5
bc5f51ef
3b16766d
bc7c8332
bc80ea43
3bdb72e3
3c9473fa
baa7ba88
bb18571c
bc3f906a
bc12145e
3be28b43
3c9337b2
bc81d720
3b9e9b99
bc3cdfe2
bc2fa890
b904d929
3c14d90f
bb9c7e5b
3bd8f642
3c73470b
3c741761
3c296405
3c00801a
bc03dbec
bc11758d
3c82969a
bc195101
3c803e01
3c7a3f9e
bbc044dd
3b266bd4
baf40735
bb8cece3
3b0af14b
3c8dcfbe
3c593977
3a66cac7
bb5cb2bc
bb172a54
bbc96e19
bb5842f3
3c75c109
3bb44ddb
3c8fd02d
3c0eb7b1
3b6ca30e
ba61b613
bc8ccedf
3b2be90e
3ab11ed8
ba22479c
3b89475c
3c182e8f
bc8eb026
3c271d3c
3bffc337
bc694d3a
3a46c077
3af68ece
bc83d5f4
3c6ade46
3ad4206d
3c7700b1
bb3ecdcf
bb78e349
bc5b5a6b
badcd993
3c01f447
bbb0b1b7
bc34d845
3c648f2e
bc35f0b8
3b3aa98a
3c704820
3aec97f7
3ad59f7c
3bce509b
3c41e534
3bab120c
39f13994
3b88e72f
bc174303
bbcc1591
ba8e7cb9
bc3d2fa7
3bcc1b84
3c3730a5
3ba8a7a1
3c53ec54
bbf6faf4
bc80f192
3bb73a50
3c4a282a
bc5073dd
3b7ae1eb
bbfc7dcc
3ae04206
3ac188ee
3c76483f
bc1c8971
3be6ba50
bc1384c9
3aed682b
3c057bcb
bc904f83
bc20ce35
3bcee0f5
bb022698
ba6052ef
3bcfd748
bc1f0a0a
bb0fef5d
3c051544
bc591ccd
bc832d3e
3c8473ef
bb56394c
3c77ae05
3c81b752
3aa0aa1e
bc756815
3c9ca347
3c064f73
bba0ed6b
3bcd2777
bc1b593d
bc624898
bbf9f793
bc4aa225
bc6d153b
3c4ebd7d
3c77d1f2
3c38af75
bb5a9af9
bc444d3d
bc88a0aa
3b62a237
3be34130
3c113e2e
bb9fd6dc
bbee28bf
3c606f5d
3c4c0bb0
3baa78e7
b9f54c73
3b8bf1f7
bb71fdf9
bb55b2f2
bc21fada
b9dff1e5
3c4dd72c
3c534b32
bc09ec38
3c00869d
bc5c6db7
bc3128c0
bc276726
3b00ada5
3c73beb4
3c0f7599
3c54c732
bc925781
3bffd0f9
3c2140b3
bb86967f
bc0ec16e
bbbad5d2
3c022482
3c86cdb3
3c84ffbd
bc5b2b72
3c5e9546
bc8bac46
3c067ef8
bb8ee73f
bc1335fd
3c535277
3a98ef7b
3c41282f
3c488f6a
3bd6aa28
3c8c3bb0
3c330de1
39cd4eb9
bc624bd0
3bfbf4e3
bbc76b95
3c5b6cab
bc5afdf1
3c4ff257
bc824f64
3c443d3e
3bd3d81e
3b7fc439
bbf8e385
bc0af7d4
bc8b6c30
3be43fca
bb369017
3b182032
3c678800
3bbf3107
3b8d9d0c
ba90020e
bc897138
ba911008
bb88d743
bba8a647
3c0cafde
3b8af868
3c6e22d7
3bb0dbf8
3b9cd9fa
bbede3b3
3c187409
3ba49438
bbb8d391
bc8a9c5c
bc2e3ff6
bbdaf8d0
3b5629dd
bbfa72bc
bba6a21c
3c49fed6
3c17cc3f
bc3fbce0
3c8ce14a
3b7e536d
3b7a3401
3c7f1bb1
3bdc074a
bb69d79b
bbfeb81d
bbc242c3
bbadbce3
bc2191df
bc16db24
ba44f7db
3b5e1a79
bc02b3d0
bb8c539c
3b63caef
bbbb9268
3bec629d
3ae8dc78
bb8ca9ab
bbddd227
3b2e3cf2
399a522f
3c87414d
bb67ff3e
bbd1e10d
bb2c3dd4
b7058bf1
bc77aca7
bbd63728
3c7e3d92
bc44ce16
bb1b69d3
3b94a4bf
bc379170
3ba87b5a
3b8660f1
3bda0a98
3c1447a1
3bcf5b2e
bc4ef050
bb8c6146
3c8741dc
bc8ef208
bba4b2db
3c001b77
bbda999f
bada7317
3c4ad143
3c1fbc5d
ba88ce9b
3c597f23
3b83cfc1
3bcf3495
3c14168a
bc8a4b43
3c80c3dc
bbdc8b0a
3bedd0fa
3c680027
bbd1f411
3c785a14
bb0122c4
3bf4d435
3c4524be
bb5bce3f
3c0b4c24
3bdfa908
3c09ff3e
3c5c0445
3c477b94
3affe268
3c20d2de
3b8f94f6
bc5bf5d1
3b5760fa
bbf28b96
bae4ea8c
3b52eb64
bb142323
3b80ede4
3c425b7d
bc8ef305
ba43745e
3c68bf7e
3ab04818
3ab9f4e1
bbd80120
3b2f4e48
3c08cc90
bbe81c72
3ba35cff
bb25bc56
3bcbe8c8
3c7c3ad5
3c4c9b7f
bc72fadd
3b411bee
bae9d205
bc16ddda
3bafa44a
bbe36e33
3c08fc55
bbad635b
bb6e8304
3c2426ae
bbdbfbae
3be931c6
3c55b80a
3bddba7b
bb95275c
3bd76668
3c46ee3e
bc18f720
3b9d3954
bc918f24
bc17e4dd
3c433ce0
3c82b64c
bb97111e
3c67c9e2
bc2458b1
bb3632b1
3923721c
3c422abd
ba900dc3
3b9e23a6
bc534c19
3c248c2b
3c22a6e2
bbbe738e
3b85e7b8
3c9a9e23
3b1d06c3
3b868057
bbb4d5a2
3c89a0b7
3bae418f
3c896cbd
3c1b7411
bb52cb32
bbd6d476
bb61dbdb
3c71acc4
bc4677ef
bc0ecd1e
bbc82485
3c5f5e0b
3b603e21
3bda1b4e
bc6543a8
3c238bcd
bb1e556f
3c1058e3
3be48514
bc5f964c
bc0b14af
bb6cad79
3c1a3543
3c375598
bbb1a7d4
3bb4cd65
3c565992
bc02c657
baf645c2
3c1c664b
3b85c691
bc30f360
3b5eb060
bc839464
bc6005b8
bc608069
bc6f3f5e
bb405fec
ba26d448
bc83b82e
ba80d711
bbb48f45
3bc9d0b7
bb834fdd
3ba1a5f4
bc2a26b3
3bf26089
bbe9fafd
391329d8
bc6ea058
bb35b232
bc620130
3c6a4ea9
bc244da6
bc243638
3c3f6379
bc5c0b31
bc833240
bab85cc2
bc84ca39
bb87bb1c
b97b6454
b9e6118f
bc18c826
bc8c4bf2
bc42984a
bc533ebc
3c83fcd8
3c0e732b
bb3e6805
3ba880dd
b9ac8b30
bc60b83f
3b50624c
3bd76fc7
3c322e73
3c64a46f
bba52893
bc371164
3bc48d41
bacdd00b
3c45e175
3c77c6d2
bb3eed66
b93d83af
bc513e2f
3c52b4fc
3c3a880f
3c7aba33
bb868b7b
3c266cda
bc135748
3c82725c
3bc6db60
bb035064
3c256c21
3b00d161
3c09854b
3b95ed29
3b880bf7
3bf809c1
bb6cd687
bc1f5601
bc08ee4f
bbb4363b
bb43f84a
3c5fc0de
bbad65b0
3c038010
3c521c39
3bb476c0
bc54e42a
bb2f693a
ba61ad6b
bc6ff31e
ba34b771
3c5ce559
3c3325e1
bc7e80f9
3c66311d
3c447084
bbd9fe8a
3c2721b7
bc90c66e
bbad4c18
3b3d6555
3c8b78d9
bc206700
bc8b2268
3ae40124
bc2bc3d2
bc1e7b5d
bbad291f
3c1eaec0
3c8e42b2
bc0fa2c9
3c6376ec
bc27fbc8
bc2f7fc2
bc0f709f
3c72321f
3c84962b
bbeec4e9
bb76d5f5
bbeb6e81
3c82bf94
3c88dc3f
bc403cde
bc189dbf
bc0b374f
39fe67ad
3b24f78a
bbc0d87e
bbddec62
3942e29c
bb683f26
bbde1aef
3c49f665
ba8ad6a2
3c86a5f0
3bd494b3
3c805dae
3bddffcc
bb36be47
bc6c092d
bc7237e5
3bcd8ba0
3c22c3e0
3c585209
3c237368
bbbabcf1
bbee45e8
3c00329d
3c06e108
bb4caa3d
3c2fed6b
3c06dbe5
bc468758
bc3090d4
bba739e7
3c39c811
3aa8cf64
bc89cb9e
bb9df4a4
bc1663da
3c67fa99
bc81d409
bb87ef45
3bb85ef3
3aec51f0
3bbef357
3c99d4b1
bc82c2a6
baab3ae8
3c02cfaf
3c2c113e
bb1cb65e
3c79f68a
bc32a883
3971951d
3c84182b
bc796438
3be9a691
3b94a640
bc24d467
3c16e448
3c8fe20a
3c05cf4f
bbc34f64
bc445915
bc63c602
bc4cff08
3b803157
bbb7f881
bbaf896a
bc71d3fa
bb54e0fa
bc1ebbec
3b26017a
bc8e2ff7
3b86de90
bc2a2406
bb5470c1
3c8929e4
3c2872c7
bbd3b03f
bab83d9f
bc4d2ed0
bb191202
bb513751
3c3b498b
3c17ccfc
3c7594f8
3bedaf77
3c2039c2
3c387465
3c0ce485
bbde640a
3c37e445
3bbd8d07
bb8b1e2c
bc333f4a
bba1f286
bb690f05
bc7d307f
bc8a247d
bb5f9809
ba67bd60
3b4dcb31
bc4f9fd9
3c6fc9eb
bb8df97d
3b5c9f60
3c13211c
3c377521
bc6c6c30
bbdc972e
bc7d8e36
3c878db1
bc894281
3a27809e
bc1879e8
bbefb8dc
bc1ad1d5
bc50d6c5
3c26cf0e
3c3f4f83
3acb83c4
bc717a56
3b72cd27
3c64a8b1
3c06d1c8
bb3109bd
3c312a80
3bf712a8
b9471fe5
bc865753
bb232624
3ba4b997
bc0c48f5
3ab52fe7
bc7ff872
3b234717
bc13e535
bb9a9b10
bbc6f7c3
bc5a75a0
3c8681ca
bc426381
bc08639b
3c51f818
3c6197f7
3bb7bac6
3c08afe4
bc5a7c2c
bc79b649
bc36a886
bc4e0db0
3c385ec5
3c8ed454
3c74988d
bc08a02e
3c81d2cf
39bec7f4
bc7720f8
bc056962
bc5fc118
3c7b78c0
3c4f0f0a
3c696d5b
3c0f4928
bc2a80fd
bc176352
3a9f2ef4
bbeb7207
bc0d3358
bb3b6d25
3ba0bddb
bc126a7d
bc6e5f23
3c72eab5
3c818bf5
bb0e9bd8
ba0be732
bb77264a
3b39792a
bb30fc9e
3bf7170e
bbdcd482
bc41075f
bc3206d5
bbbcb3c5
3b4b5c9b
bc837100
bc524034
3b6dfed0
bbd999f4
3bf96888
bc2d1cfc
bc4b854b
bb33bbf3
bbf4e0c1
bbea9028
bc5ec956
b9760498
bba49b5a
bade5afb
bc47b054
bab156ad
bb8a45ba
3c028b38
bb7a7b28
bb7a76a1
bc7dba60
bc2623df
3b424a0e
3b1b5546
3c31c81a
bc87c934
bc02870d
3c544dd1
bc31fd44
3bc4417f
bc1d155c
3c8a71b6
3c4977a1
bbb20135
bc227e7a
3c899da5
bbd43446
bc116911
bbf6167f
bc549187
bc4424f2
3b0b31f8
3b3a7a6d
bc484fe2
bc194128
bc1c017f
3b8fe1b9
3c56f85d
bc5f5fd5
bc27d9ea
bc59b948
3c80c766
ba1173e4
3bba2a13
bc62f44a
3c688385
3c4303c9
3c1feb73
3bdbc91a
3c07333d
3c8b51fa
3b509207
3b3fe3ec
3c60d04f
bc267781
ba9d73bb
bc18539a
3c61003f
3c3e8a4a
bc19dc15
bc733323
3bf71483
3a702872
3bc21820
3a354832
3b8c8a47
3ac6af5a
3ba0c5bb
bb6ed728
bb56a989
3c560aea
bc8824d4
3b580e8a
3bf11c5c
bc0d2bc9
bc693ca2
baeec3e5
bc836efe
3a1274a6
3c5e33b4
3c8874cc
bc267504
bc04c800
3b48f330
3bc5a856
3ba422dd
3c394e8e
bc1845f7
ba0795c7
bb8997e4
3c37a3a6
3ab3f8fd
bba4acd7
3b34a7ca
bc45a0ac
bc03be59
bc821649
3be6a9d6
bb9d586d
3c4a5e4e
3c82f391
bc4cb8a2
3c72fa10
bc788287
bb0fbd19
3c699a61
3b6240ca
3c0ba9b3
3a4105de
bc0a123b
bb531a26
bb2b9646
3c5ece72
bc35d14a
3ba7e247
bc5bfd41
3c8029b1
3bfe0b06
bc2e75b9
3a819f52
3c858d9d
3a69c828
3c283554
3c8275d3
3c1a3f7d
bbd15b14
3b038607
3c7e451a
bbc6cbaa
bc82ab40
bc6f7402
bc337cfe
3b4f39a8
bc3e4625
bbf78adc
bc762b5b
39ee300e
bb822d80
bc63989e
3a9ece6a
bb75aadf
bb540475
bb2701f7
3bfcf94c
bc761726
bc665453
bbeb1c77
ba069a63
bc4e0eb3
bb3acec0
bb9d1666
bc0ae2cb
3bac940e
3c440f9b
3a16f775
3c7725f2
bc470d09
3c7ec089
bb6558bd
bb7d7a95
3c27b1c8
bc9451bc
b87f6ee1
bc7b9bc3
bc03ef42
ba900fb6
3c470b09
bc4cff7e
3c331e01
bc571fda
3c0866f6
3b1cef3a
3be20486
3c03f55a
bc53c498
3bcb00f8
3c31212f
3b5af0c9
bc150fe3
3b80da2c
3a8c1759
3bc132d9
bc6338bd
bb92fcc3
3c04ec1d
bbab02b2
3a91a8c6
3c87ca71
bbb9894e
3c5521ee
bc0ca8dc
bc37de1c
3b9601c6
3c937c82
bc553286
3b28da29
bc666a5a
bc3b4d15
bb26eb49
3c769f58
3bc68ea9
bb08f088
3c4de79a
bc246110
bab898db
39ec8d29
3c2db1df
bbb2f026
bb832de3
bbac2bbe
bb8b142e
3c517b23
bbfed492
bc6cffc9
3c3a6438
3bafa01f
3c821318
3bcda305
bc20e2d5
3c89a872
ba865eb2
bbe10a80
3b348d88
bc6c93ae
3ae215ce
bb5b93d8
3c5f69ee
bc060996
bb509d8e
3c451b31
bbece3ee
3b9e873b
3c0cb88f
3c50157a
3bd6027c
3c45dec8
bc501147
bb17725e
3c7c2381
3c6525ce
3c536310
3c437e35
3aa9c5ae
bc409aa3
bbd4e3ac
bc4a42d3
3ab19a30
3c14a90e
3c38ee83
bb1ea59d
3c40813f
bc2ba07b
bb8e8ff0
3c61e21d
bc919f09
3c06cf1f
bc11dbd2
3c592490
bc88fe81
bc1edba5
b824d60e
3bb28e3f
bb39ea18
3bc867d4
bc57caff
3ae9d4ac
3b115a68
3c307730
3c57e44e
3c520786
bc33cb34
bc333d6f
3b2cfe3b
bc5ae4db
3c5c5d89
bc4622d1
3c3a5383
3a86d91a
bbf72b8c
3bce546c
39e6b954
bc38e554
3c43cd3e
bc7bbcb7
bc11dc9d
3c7386d5
3c1ccd65
bc88009f
3c635a2a
3c852777
3c57405a
3ad94fc6
3ba39d9a
baaf326e
bc2e3a40
3c6b99cf
bc5aa888
3c83f4b8
bba1ab5a
3bee806d
bbd47985
bc3d5fdf
bc3639b4
bb8e012a
3bf26458
3c65398a
3b61fd36
3c49cdb2
3c564cb8
3ac5d7e6
bc6fdaef
bc867b24
bbc7b31f
ba1d78c4
3b570b80
bbd01bbf
3b05064b
3be47e85
3bd2eb30
3a4b79b3
b9ea1905
3c08c901
3c792038
bbd68756
3be69478
3b7af0a6
bb411a7d
bc2d088d
3c37175f
3ac868ba
bb9f70f2
bc7dbb11
3c0e9f4e
bc044649
bb16f7a4
bc1aee5b
3b833a9b
baf666f1
bc7b94a5
bc33d55e
bc2932b9
bc7fb56c
bc4a07a6
bc6a05b4
bb2186ec
3b9323c1
3c1f3d4f
bc6e6340
ba8ee5d0
3c7580e8
3c3c8c03
3c8977f2
3c8a17e4
bba8c878
bbd16bc7
3b1b907f
bc8a3f56
3c0a5f50
3bdf513c
3c23e6cc
3a7407c7
3c00fcb6
3c7c357e
bc686bd9
3b850e86
3c8c54d7
3c8aaab0
bc5fa61c
3c772997
396911b0
3b8c6dd5
3c08ceb5
bc56546c
bba47f51
bb83f556
3c12285b
bbe126bb
bb6a1e5f
bc4f2517
3b7b0788
3c3d375d
3a2816ac
3c8454bb
bc6e1c8c
bc8339c9
3b7314ad
bc6bab06
3c11eda1
bb4124fd
bc50ecb6
bc82852c
3be8b79a
39762b85
bbed598a
b91ecfe4
3c4a12d4
3c89abc5
3c49ca86
bb3127b8
bad911ee
3c44084d
bb1a55f1
bc7b365a
3b619fad
3c62d123
ba069dd0
3b8d4100
bb534e17
3b932d75
bb108c3f
bbd1ae7e
bb9c0bed
3bd33b31
bb05f447
3a4c747c
3a81fbbb
bb1217b4
3b96fc42
3ba61b10
bc04a48a
bb675f9c
3c9a86cb
bc8b5f55
bbd0ed74
3c2db37e
bc0e911c
3beed918
bb8929a8
bc853a65
3c6b1e1d
3be00172
bbb16fbe
3c6c3238
3c23ffec
bbc0bd0a
3bf5f32c
3c5f2995
3c7d4cf6
bc02aa2e
bc323afe
3b5c6e40
ba5e2f20
3b647c70
bb524558
bb84cdd0
3bafa0f1
bc1bae15
3c142b4d
3c6e4f81
b97167bf
bbc2ed95
3c96b8ec
3c643bec
3c24715f
3b82ea00
3ba8feb6
bc84fb3e
3c488a75
3b7fae0f
bb89b242
3bff9dff
bc56b5d7
bc4a3685
3c62912c
bad78f96
bc5e9b31
bc622d5c
bbc6551b
3bcc114a
3c4594c2
bbf37268
3a6fdce1
3bc85baa
3bcb7189
ba3853cd
3a912f4e
3a31f016
3c5d6ffb
bbad2b5e
3c42e018
3bf61681
3c09a2f4
3af4083f
bac42e07
3b9221ec
bc312960
ba501071
3c882eef
bc832634
3c063258
bb1b0d3b
3c01548e
3c7d32c3
3a900bfc
bc143543
bc57e00a
3c8b033d
bc67bd1d
3a4efc9f
3b8a85c9
3b7d432a
bad888a9
bb86c215
3c560574
3c853478
3bcfb69f
3c38a824
3c7313a3
3c736289
3bc08131
bc6d8dc9
bc84c576
3b35fc91
3b918fb7
3b6cd4c8
bc6c37bb
bb97eba9
3c0c0b4f
bc086650
bb32e91d
3b085e9e
3c74219b
bc422b04
3bfb7b67
3b5529c2
bb13ccde
3c4d1909
3bfbe56d
3c444c44
bc1f556b
3c19d30f
3b922cc2
3a418582
bbe4f07a
3c5c0575
3c21f3f7
bc4a4a85
bc393a89
bc6bd260
bc0bd40f
bc765193
3bf012e0
3a188ab7
bc44e448
3c899cb1
bb652f67
384ec779
3c944a1d
bc02bc02
3925f3ab
bc745e5b
b9373b38
3c354871
bbb40081
bc823753
3c41332b
3c470e88
bc787430
3b157ed4
3c2209b6
3c5e0a98
3c241481
bc511c32
3bf0caaa
3c29006f
3c3aeb9a
bbef37a2
bb9069c7
3c8ac0e1
bb57c1c4
3b891849
3c448ec2
bc04ec1d
3c0a9cc4
bb74fb6e
3c2ac0b0
bba6cf57
3c911c67
3c86cab3
ba93d3cc
baf5042c
bc88d5ec
ba2aeced
3bddcdcb
3c328705
bc72b361
3be70059
b9b892ae
bbdd11c9
3c3a7eeb
3b42b87f
bc198526
bc345d24
3c5ba0cb
ba88afc5
bc8a464a
bc0642e5
bbd91780
b82cce2a
3c60400f
39f0c981
3c1faa8c
bbd9e73d
bc1913d3
3c228fc8
bc666b5c
bc45bce1
3c165ce5
bb13afcb
3b54eb21
bc3a1bfc
bc25a842
bbaa1702
3a0337bf
3bfaa183
ba68533b
bc0a4ee2
3ba3e24e
bc6f0c12
3c44074c
bb0ce027
badd5bef
3c5841cc
bbaf674c
bc856f07
bc3c0a5c
bc6b11f6
bbba347c
bb9d1805
3c1610c9
ba64717c
bb2d79cb
bc917c96
3c12c95a
3c66038e
bbb0de7a
bb4c7d9d
3c239336
bc1a38f9
bb860c0b
bb615f0d
bc6b5511
bc2eb33a
3be04561
3c0869ed
bbd56bb8
3bf968b3
3b90710f
3c8601d5
bc7a327b
bbbecba0
3b859c28
bb3ce75a
bc04a51a
3bc7e698
3bbb8264
3bd63147
bbdd4b24
3c31b2d3
bbd35e73
3a524a76
bc4203ef
bbc0fbbc
bb5a5638
3c0d6162
bc282e13
bb18feea
ba7559ce
bbf3c5c2
bc7c974f
3c550b70
3b86efe9
3b984338
bc5906bb
3aadaa62
3b1a17b7
3c372453
bbcb4dcb
bbdf0df1
3b246d21
3c534c3b
bac1722e
bc4dc99d
bb30ca67
3b9a3452
ba75bc1e
3bac5df7
3c160d72
3c3dd03f
bc1c1056
bb2cadeb
3c3e1df5
3b0c56a1
3c07fc9d
3b73783b
390e4553
3ba12d84
bc2f1818
bb23d3a7
bab548de
3bf70ff1
bc355b74
bc3a4ec5
bbe5c7b2
bc4c2093
bbc08202
3c6cbc25
3add0f5d
3c5b18e4
3a9cd711
bb9ac9bb
bc5b8c78
bc3e8416
bc393247
3b087334
bc38e028
3bc122fe
bc2a4a88
3bc12682
3c462991
3c1d16a5
bc016403
bbeb7fba
bc28ac78
bc442f69
3b749908
bba81e44
bc840794
baab6cd6
3c27113e
3bed3637
bc198e07
bc4094bd
3c1516fd
3a954250
3c4bf128
ba7bd59b
3c82ae65
3c0f2870
3c8e73f6
3b8aa02a
3921aad7
3ae8ba9d
bb5f8435
bc3cc6a8
3a9de0fc
3c85ad46
3a439812
39ad29f8
bc62d619
bc600651
3c5d9c75
bc014d15
bc567f24
3bc589d8
3bb16915
bafac8cd
3c97c3df
bba531b5
3bb75db4
bc4c6344
bb8ca508
3c03f98c
3c64af1d
3aa8d859
bc795c9e
bbca4d45
bc2ec339
bb0d3a77
3c7524fa
3bb1121e
3c542322
3c206b78
3b0e55ae
ba322b7b
bbd574f4
3c74dec4
3ba38578
3b5d2ce8
3c7b1360
b9b8f667
3c8209b3
3c4d0b69
bc5ac822
bc0f0a98
3bff11ac
398215b3
3b5ff40b
bb10d242
bb2cd2be
3bcb5ef9
bb824050
3c06352c
bc3a90ee
bc13903a
ba27ca92
bc3f0524
3b0f8236
bc7f3f78
baf9b165
3c2efb2f
3c8a0797
3c6a3006
bbae04d6
3c5c1352
bc1966b7
3c5630a5
babd5730
bc16a519
bb3f68f7
3b90d398
3bbaeaa2
bc832c2d
bc09e14b
3c4a6034
bc4bce0b
ba1a45a2
bc6a639a
ba69c240
b9cf4b01
3be39659
bc4e74f5
3bb9a822
bba76086
3bc39d97
3b484771
b90159ee
bc321d94
3c7c35c4
bbe22cbb
bc7cea32
bc5ae836
bb20220e
3c21109f
bbbefcf1
3c2e8881
bc4157b6
3c01c73c
bc851c47
3bdcc0d6
bc5786d0
bc2608d5
baa95955
bbe97b0c
bbbc15a5
bc8f6447
3b8ba9f8
bc6d055c
bc2d4770
bb3a8b68
3c43bbec
bc17b99c
3c2435c8
3ad979c8
3adf6816
3b4ee784
b98cac5c
3bfba92c
ba9de5d1
bc84fa6a
3c67ff2f
3c563fff
3b2d8948
bc2ce8df
3c36de26
b9155c37
bbfc2c32
bb7d33ea
bbbccf0d
3c83a381
bacda746
b92eef16
bc18e3a7
bc25ac9c
3bc102aa
bb3573a2
bc32481b
bc33bb6d
bb940c45
3c5fa6c1
3c4e8199
3c2a699a
3c1e54bc
3bfc9319
3aa46ec6
bb6bef4e
bc337680
3c84d83f
bbd19958
3b529a4e
bbc9c54f
bc8cc9b6
bbc20b9e
3c23d6be
3a3040fb
3bc30903
3c6c6132
bc3c58c5
3a6bd3ce
bbfff03f
3a0a290e
3b68bad9
3c56b27d
bafb21b9
bc36a061
3c5ec0bf
3c750870
ba85ffab
3c3ab08e
3bbb4455
bc812a35
3b1233b4
bb58a799
bbc1fd88
3bc238f9
3c03db1e
3c1d3e1b
3c1f5075
bc561f3a
bbc83099
bb6f9985
bc37e842
bc6301be
bbbcb4df
3aa6a4ab
3b1c2303
b9f1c931
bc43e89e
bb9ff571
ba294d30
3c36f7ac
3c4655ac
3beca739
bc748a08
3c099394
3bdabc84
3c6629c7
bc863e0a
bc537139
3a4d4f76
bc41ac84
bc87ef55
bc685eca
3c82df0f
bbe85fbd
3c86d6a4
bbd0ca60
3c72644e
3be77b33
bc4cb696
bba1e251
ba98e787
bc458f9d
bc3309ff
3c506d21
3c876e5f
bb3bcb6e
bb866095
bc40b9c4
bc68c008
bada3d1a
3c93eb6b
bc3a04a0
3af1fc98
bb2e07bb
3c511a7e
bbf590d1
3c3c998d
3b5473ad
bc4e1088
bbb77a0c
bb3fe3b5
3c4b8806
bc824d12
3b049cae
3c59b38f
3c905c29
3c50ba29
bba98659
3c91ca2d
bc91c5c4
3b8152d3
3c8aacf9
bbef31f8
bc14970f
3bf79ba9
bc168f4c
bae8946d
3c2888f4
bafd7036
bb800751
3c60a873
bb760022
bbc61cba
3c12e307
bc388c6f
393b091a
3c17a30f
bb069b54
bb238be5
bc34ae96
3c812097
3bc23d81
3acf24e3
3b2b40d4
bc281680
3c5db10c
bc8bea15
bc4d4906
3b0ddb24
bc07f5f8
38b7b5e4
3c919e6b
bb8be3d7
3b15ecb3
3c999a59
bbd45365
3c229d13
3c8f8f43
bc8cd5ee
bc3ef838
3c1e0467
3c8906af
3bf45948
3c3aa5ee
3c8672a6
3c266aeb
bbc2157e
3b9e7905
bb4d1c4a
bbef9cd1
bc802018
bbe3ad71
3a9e678a
3c3e13cf
bc4f7114
bc6ad233
bbfedbfc
3c497e03
3c79d26c
3c1f8d25
bbc509cc
3a89a84f
bc8e2e92
3c50e4c5
bbf38db7
bb18dabe
bc6109b6
bbc747b5
bbc03108
3b81d2c4
3c7f3137
bbadbcf0
3c6263bf
bc5eb08a
bc470314
3b7fa461
3af19c6e
3bc9b3f3
bbe62bc8
bba8d2c8
bc8237e9
3c132045
3a779d8e
3c52f97d
3b36f4c9
3be0b800
bb823920
bc58fc34
bb44b85f
bbe30ce4
3c0129ae
3c679e91
3bf5a07e
bbc6a62a
ba4b6f07
bc8594eb
3c1bad48
3c467d69
bc05d034
bb9cc904
3c1cf0b9
3ba13934
3b00a44d
bbbb8206
bc8be3f4
3c04b3e5
3c4d3353
bc91148b
bb8aa59a
3b0445e0
bbf689bf
3c37ccc8
3c326d92
3c4bf03e
3c73c7c9
bbe33aeb
bbc357b5
3b636a95
3bae4c4a
bc24bd4d
3a94bada
3c19f299
bc3b2286
bc1948de
bc62d403
bbcd8a7c
3c7bf38b
3ba14a0e
3c8a58d2
bc0a268c
3c66422c
bc101df0
bbada69b
3c807f24
3c868530
3c31c5d8
3b8eb4ed
bc890daf
3b3e9284
bc3092ec
bc988e3b
3bb1d328
3c8521df
bc122d4c
bba20a65
3c29ad55
bbf18467
3c80bcfe
bb6e07bd
bbb1ef6f
b983f029
bc056688
bb8fe3f7
bc840e80
bc23cc03
39e6d6b9
3b3fd590
3c6c0157
3aa026da
3abef1c3
3c87255b
3bc17bf4
bc164074
3c16063b
38147a76
3bf192bb
3c8a4291
3c3d4e10
3c143897
bbfb2161
bbf31228
3bfe3e74
3bb222cc
3beb8a7b
3c237812
3c2c0b20
bbedd33a
bba15484
bb6418c4
3c83af97
3b9f7139
3bf0aa06
3c7c23a1
ba410af8
bc5c4db1
3bc1c24f
3c3f7d93
3c95878a
3c4a479e
b8d21595
3a1a323d
bb1abde9
bb29ec0d
3c6e780a
3b500080
3b87af05
3c2afd5c
b93e9a0d
3c5bbba4
bbdd3647
3c7d468a
3c2e94f4
bbf3bb3d
bc2c6bad
3c463fde
3be2fdb7
3bff293e
3c5c0166
3bdf8c62
bc35b1bc
bb2b70d0
bbe69b60
3b882e42
3bb6fd0f
3c93fc1f
3bb3841e
bc52f968
3c6a6181
3a94d33f
3a92ad0e
3c8454a5
bb66b240
bc59928d
bbb06814
3a5a194d
3a884e76
3ad7a622
bc49a7e7
3c35ca5b
bbecef14
bc011212
babdfcf3
3bef6743
bc5bd820
ba08f895
3b810eef
3c8b96dc
bbb6fe62
3b20828a
bc46373c
bc346bc4
bbe8d38d
ba9a7cc3
3c280f17
3c14471c
bb0b39a7
3b530235
380a697b
3b575f1e
3c3a0d7c
399bf2a9
3b993856
bc255a2e
3c10a273
bb19a8b3
3a84718c
bbfe3e29
3b4f0c9c
bb904c22
bb08e34f
bbfda5a4
bafeb733
3c412c68
bbb855c3
bb97e8f5
bbd896a9
bc17fec0
bc02de56
3b105556
bba1d07b
ba45afab
3c6af037
3c166bcb
3a7a7aca
3b6d1ed6
bb915885
3c0c78bb
bc0613b5
bbebe503
3b73176d
3b00d5e9
3c3d2938
bc8df189
3aa5947a
3b3d22a0
3b719ee5
bc0a63f9
bc65c12f
bc858d82
bc8770b1
bc2bf878
bc2b1f35
bc861447
ba7743d5
bb23cfb5
3c7f92c0
bc4dc6e1
bb14b889
3c8eaa56
38faa397
bc6f6ae5
3c36211c
bc475e4a
baa95afa
bba826b4
381e8b71
3b38b989
bc2ca101
bc2f2906
bb239365
bc0366ce
3bcc5439
bc64a401
bb59155b
bc090740
bc07b60a
3c869fe2
3ba04dc0
bc6e8bd3
3bb2157c
3c825a5b
bb45234b
bc6eeabd
bc82dd39
bbad7b36
3c8fd9c4
bc38a58b
bc80de0f
bb7543a8
ba1d3948
3be09848
bc10edfc
bbaf87e3
bbda24a0
bb9dcc10
bc2c4ff8
ba6531d1
3b90b08b
3c2af2e8
baded5ca
3c3a0f3a
3c295725
3c767f17
3c7d24da
bc6b4325
bb0e14d2
3c762684
bbdd8468
bc78607a
3c2a375a
3be6b8ba
bb142682
bb82254b
3c46796f
bc119a94
3ab819e2
bb12a78d
3c514520
3c0ba4fe
bc48410f
bba0f851
bb99a55c
bc20d510
3b82f6a8
bc525fd8
bc85a80b
bb592ee3
3c92ca44
3c12986b
bb3c4533
3c894769
bc0e8ae9
b9bfbdd7
3c99e52b
b9897919
bba4cb46
bbbaa99d
bc2c55db
bbec6eb3
b8de658d
3c89c82f
bb877a12
3c0bec24
bc20e07a
3c54430e
bc828d5c
bbf54beb
3c299ca1
bba8a634
bc6f8545
bbe91956
3c89a062
3c467fd9
3c322026
3c6bc4b1
3ba9af4f
bb95f2aa
bc0126da
3b4eb631
bbba4a22
bc1fabdc
bc859c01
bbd704e8
3c3db733
bc366e81
bc886361
3c8ed8ce
bc729dc4
baaf248a
bbafd955
bbf72a62
bb2da98f
3b9e75c6
3c294366
bb5efbce
bc3dc546
3c39a35b
bc62901f
bbd38d30
bc3c4fbe
ba0f4739
3c3cc953
bc93cf69
bc6918f4
3c7bb41f
3c2766e3
bc0981a7
ba8daf67
3b7d69ec
bb41f95f
bb52fabe
bc81af2b
3b44c5ba
39999e32
bc018ac0
bb80a964
bc4a8048
bc6be914
39087675
bb984c92
bbaf5768
3c24c7c0
bc11b764
3af6c71c
bbaaa19d
bc273f30
3c8623f1
bba0370b
3c6451fd
bc6dccb5
3b82e1d4
bc3f6753
bc6ee693
3a6fcffe
3c5b3f77
3aaf821f
bc440def
3c3379e0
bc276ce8
3c873e5d
b90634c9
bac562ff
bb39bdcd
3c0d4ec6
3c47bb5f
3c422ee1
3b7b89d3
3bfd6b73
bbe26fb2
3b0a7b99
bc0a146a
bc52ea70
3c5715db
3bd5324e
bb4f22e4
ba816eab
bc4cb600
bae5d7b6
3c6e80b0
3c3da56e
3a7b496b
3beac6d5
3c7ab6ae
ba2cb612
3c3115d7
bc907a69
baa5b2a4
bc4a9202
3b00851c
3b28543b
3b27a71f
3bb41318
bab19677
baa76408
bc87e8e0
bae3f2b7
3c36ade1
3bb4e11c
3b8094db
bb7b96a9
bc1f09c5
bc5f19df
bb896cf5
3bb10201
389a8f63
3bb44e26
bc31052b
bc03cb7f
3c8b69ca
3bf51305
bb95dbf9
3c7b0d4c
3c487895
bba9617f
3c054b5f
3b7897a3
bc4087a9
3bb1f71c
3c722963
bc49d5fb
3bd81461
3c421a37
3c34ea3d
3c2517fe
bbf49275
bc5aa27b
bc451a5b
bbe7221d
3c05e3e7
3bf60a57
3c0596f4
3c54d281
bc39a207
3a00a3cc
bc6834ee
bbba5e35
bc2ddd9e
3baf9b82
3c808f0a
3af4b606
ba01cdd4
3b5800ef
bb67d8d3
bc4d640a
bb936e2b
bbfa8faf
bc3e0717
3c468da3
3a99032d
bb50c7a6
3c65b3fc
ba8873a4
bc89ba7a
3bbcc796
3c775b8a
3c206cb0
3c188352
3bb1b164
3c736666
bc334c2a
3c2d37a9
bc51daac
3c190e3a
bb032c2b
bc847e40
bc7509e1
3bece56b
bb970290
bc7dc50f
3be6f37f
bc2dea0c
bc0bd84e
bc8a44d0
b9a85e6a
3bed52f7
badded17
bc83e6f2
3c614c40
bc161ef1
bb84e93a
3ab0dfa0
bc512fa2
3c7d1629
bc017fe1
3b4d0bd5
3b001a42
3c82cbfe
bc2a4a2d
bb6c14eb
3c51bdc6
bb1c200f
3c87775f
3bcb651b
bc920f65
b8b24207
3c822e57
3ab47da9
bc159a94
3a9d17ba
3bf970a5
3c520c3d
3b5da511
3c74dd98
bb4ae955
3c296c80
bacb8354
bc20fdd0
bb3d5ccb
bbf3d66f
bb8f7680
3c2bfad2
3c3ac977
bc61c367
bc1c4838
3c6f6983
bc8913ab
3c7bbfb1
bbd9614c
bc560f6c
3c764209
bbaa19b8
bb5a5f18
bb04fbca
bbcae711
3c8a6031
3c5c9e40
3b95961b
3bddc21b
bc88e7c7
bc136095
bc415350
bc83a2f6
3bbe70e7
bb8ea0ef
bc80a052
3b04d7f4
baf92ed6
bc486729
bb9e7cbc
bc54ce23
39a84867
3ba5cff5
b7b1d6a7
3c5c8520
ba983afd
bbae33ad
3c2785ea
3b75685e
bc41438a
bc3042d8
bc8b3945
bc89d613
bc481caa
3aa52741
bc19a185
bb8525e7
bc432a52
bc61de46
bbade339
bb78df4f
bbf554e7
bb9f25fe
3b2754bf
3aa22675
bc211c59
bbe90a99
3b2448ac
3ba06ce1
bc8451c0
bc2605b9
3c2b231f
3ad04f7d
bc78002e
3c79de85
3c742e8c
bbf0e351
bb79dfe2
bbacb3f7
3c5d29a0
bc51f1a6
bbf63478
3c84f6d4
bc5534de
ba017ef9
3ba81b16
bc88ef20
3b9fdd19
3baeee7a
ba4f97b6
bc2fcfcc
b797d574
bc0ca403
3c833f24
3c05e3e3
ba1f6ac7
3b1de40e
bbf8e931
3c88861a
b9b7e92a
bc30a8af
3c17e52e
ba9dabcd
3c27a845
3c622eef
3b7e5b29
3c83ddd1
3c8f2f7a
bb171853
bc50e3ef
3c7178df
bbb59e16
bc15c9cc
3c1d7199
bc824b1e
bb82b4fe
3c55a1af
3bfe8c3a
ba39acac
bb29aee1
3ba9bae0
3c33d069
bb1ed264
bc8a7ec6
bc5bc75a
3c47250b
bc5e20d2
bc78262c
3c42010a
3b03793a
bc221856
bc0f5902
bc8ff705
bbccdc2f
3c71e206
bae02522
b9bfeb12
3c4a353c
3baa5da8
bb140a82
3c30311c
bc319028
3b48ece6
3c2d2135
bc711ef6
bb0cfc30
3b89ac1e
bb917922
bbf539f4
bb88f77a
3b314e86
3c5b6101
bc7a72fe
bbf3a081
3b75267b
bc8564dd
bc8ab997
bc19c185
ba341e19
bb1e7043
3c275334
3c18866c
bc5a2b72
bb8e3e47
3bde58b5
bc498b9a
3988b501
3c00cd78
bc2d05f4
3c1f4fb6
3c8cd756
bc343a01
3b043703
3c4f1c58
b78e9b39
3989d34a
3c24544b
bc7f717b
bbfdf014
3c00e0ca
3ba3c33e
bbdd1e63
bb86e5b1
3b867d77
baec04ba
bc878ff4
bc2fbeb9
3c017a76
3c88dfe6
ba7edc72
bc326f15
3c78f7af
bbdf1f0c
bbab0072
bc75852f
3bd236d1
39d7d8e7
3b88f129
bb2c8073
bc832e6f
3c2d7936
bc16c6f6
bac25f13
bc106b32
bbfe9692
3b688c30
3b1e953d
3c4fa273
3c160be0
3c0209d1
3bb626d0
3c738a13
bc2e39ed
bbee415e
3c3ddc74
3c06519b
bb9bdf28
bb9f52ce
bc30a84a
bc70e7fa
3c2cacac
3c7d7b89
bc4e9448
bb4b035f
bc67848a
bc8f1f53
bb2be97d
3c5b391b
3c1f7b8e
bc5e12f4
bc4a1184
3be521fb
bb1f422e
3bc7cb41
bc3757fe
3c841aa3
baa0afa7
3c3f1d42
bc7fe42a
bc259299
bc4dbb86
3bd7ca0c
3c0f5a57
bc38b663
bba933e7
bc6bf9e8
3badc653
3c33a8f9
3c1fcde1
bc6b4109
bb43b7ea
3c71e3a8
3c8d0277
bc8d5e88
ba4e4aa6
bbde0770
bbb8953f
bc62423b
bc339808
3c7567f1
3c28f256
bc0677d0
39e64dd2
3b4fdd96
3c63b034
bc23fd06
bbe9706d
3c364551
3c8283a6
bb492346
bc0e396c
3c880370
3c8a3824
bc696c2e
bc0e644a
bc389402
bc51c576
3bc6b2bb
bc27d9a8
3b043a03
3bc866ca
bc45f1de
3c40d17e
bc57563d
bc81654e
bc8bd487
3c20af08
bc81478d
3c59fb7d
bc41f40c
3c254e00
bc96240d
bc68360b
bc4e0ba2
bc6284ca
3c7e80d3
bbc4609e
bb89e6d8
bc81a878
3bc070cd
bc6385b4
bc70f3ec
bc83f8b1
3c14d309
3b076565
3c71fb91
bc8713ad
bb93150e
bc7279f3
bc1e2ba0
3bd1a9f0
3c541050
3c03bb0f
bc73f2eb
bad008d3
bc1e7f80
ba146ea6
bbbdbe58
3c6420ea
3be163aa
bc39f997
3c81117b
bc1764db
3c88a92a
bc291f58
3c598f92
3c87fb2f
bc92b777
bc36bfa0
bbea0f06
3942de0c
bb10afb7
3c5b2327
384a2a5b
39a3411e
bae773f6
bbf09a1a
3c8018d9
bc53158a
bc34f1e9
bb65e4bb
bc491207
3c1d4d44
bbd0cbd7
3c97c12a
3c65c785
3bfb5f36
3b85fc61
3c057165
bc339a41
3be1ff21
3c47125e
bb9bc611
3c3372de
bc0728d4
bc344d94
bc038de0
3c61ba67
bba5b157
3c8d0536
bc798642
3c5d52c1
3be36bd1
3c5735a8
bb7cb073
bbf17206
bc4b45d6
3c7fd97a
3b8fb6b9
bc37520f
bc223ed6
3b6739e5
bc935799
bb3e588d
ba339c72
bbb552d1
bc3585cf
bb96284b
3b991d01
bc8059b2
bb106068
bc840e0e
3c88cd6c
ba040112
bc142d2c
3c765edc
bc15e2ba
bb4afccf
3c28d633
3bc61d8a
bba3926a
3c598e0b
3c01cbb1
3bfc3a36
3c67d3f7
3c0e0c4e
b89a59b3
3c19fb49
3c9951f1
3b907636
bc07575d
3c7cc4e5
bc8900ed
3c376436
3c0e9342
3c5e6151
badc1218
3bf934ae
bb1398e4
bc897115
bb2419bb
3beacabe
3b2bd6a6
bbdb6790
3c8be322
3c07a31e
ba61f1de
bc7e4c09
3c4114a8
3c25ca8a
3bcf97c7
bc59487a
3c298486
bc00f5d2
3c161fb2
3aeb7c0f
baf03f87
bc4bf5bd
bc6b3bce
bc2c16ae
bc7abe2b
3c14442e
ba33ed83
3c145ba9
bb9bc190
bb8de22d
bb2740bb
bbddd1ab
bc752712
3a3ade15
b8e6e2ce
bb95f1e7
3c698a02
bba39195
bc1e7f0f
bb330392
bbf5c0f9
3c600689
bc18de5f
3c02f7f3
bc85df4e
3c03101d
3c10c604
bc921cfa
bc59ab5f
bb2d5e91
bc204d80
3c3fe149
bbee8199
3c6f3dd5
bbae112b
3aa666a9
3c8671e7
3aa6e0bb
3a7987c9
bc029420
3bee9d35
3c5f0bd2
3c76f634
3c581bb4
bb8b5723
bb926091
bc3dfc59
3b821250
bc1a9f5b
3c3de9c0
3b6ddbaa
bc21ef50
ba95e58e
bc7743b3
3bed129b
bc13cd78
3c8fe4bb
bbb46d38
394dd3bc
3b10bdd7
3c2a2039
3c427925
bb96d7e0
3c65a1ae
3c01aaf7
bc2b1941
3bdb8725
3b60072b
3bd934c1
3c75204a
3c3f553c
3c0aaf77
3ba53498
bc692bd3
3802dcbf
bc3937f2
3c0451fa
bbb932eb
bc7322a2
3ba9d6c7
ba0e6805
bc1a2d5c
3c15aebc
bc5d517d
3c4230fe
bb5d64e4
bc337fc5
3a927c4d
3bb408d1
3bb54945
3c7ddc8c
3c66ae7b
bc07e1f1
bc1ea113
bc855ad3
3c285ee1
3ba2f1a7
bb2236bf
3b89b78b
baf24478
3bb069fe
bc7a173f
bc00ee46
3ae29149
3c939b21
bc69a42b
3b6a7d91
3b994eb9
3a24b8cb
bc085e28
3c51611c
3c2223e2
bbe97502
3c265564
3bb08559
bbfc466b
bb5ed3ed
bc8bd445
bb43ce6e
bc3a494d
3bb326da
bc59892f
3c910584
bc6150fb
3a516ef3
3b7f0464
bbd96787
3bf9bae6
3b4bbdf3
bbc168c1
bc18c7a9
bc7b8288
3c5c0de6
3c5d1ddf
3b387654
bc51f5e4
3b2b880c
bb3cde1c
3c194d2f
3bce435e
39a36607
3be6c15e
3c5371c2
bb7a35ef
3ba56fe4
bbf35275
3bf69c70
bc3e09cd
3c6ad439
3b944655
bc7c2ee5
bbc3c291
bb9ee1f8
bc854bbe
bbc0c0b8
3adc1aeb
3c77928a
bc849094
3c87dcd4
bb4eb0d7
3c369a8f
3c0160f6
3be70cfb
3c45de28
3c24a05a
3be3106e
baba03fb
3b9df956
bc7de43f
bc6b8193
3c39e7b3
bc3890cc
bba7d556
bb03e2ce
bbd67936
3c7c89be
bc4d752d
bc86e995
3bf9f0fd
bc67fc9f
bc0df7fb
bbb59f97
3b4213b6
bc17b14c
3c588295
ba352591
bb9a395a
bc39e9ed
bc8817ce
bc4b8fbf
3b858444
3aa0e8f7
bc3c1877
bb613212
bc380e43
3c64be32
bc6f363e
3b4b397e
3b13128a
3b630f9e
3b8146fb
baa3e519
bc045fbf
3c4674bc
3c873812
bbe2ac97
3bf52730
3bf03398
3c3fbe76
3c01a3cb
3b1010b7
3c8c27d2
3bdae1e6
bb594f49
3b1eb791
3c41b9b5
3c897b6e
3c896e8c
3be627ee
b991a707
3c442a9d
bc230dcf
ba1ce32e
bc05c2f9
3c23ef8e
3c41dcb8
3c5fc131
bb86d237
bbe7cee0
bbbc6edc
3c7fbbad
bbe06009
3bb5737b
3c8c1cf2
bc7f47e1
3bcb1272
bb8129df
3c35e2cd
3a933ab8
3c3290b1
bb1c9c88
3c25c124
bc5fd597
baa990a1
bb9de389
3a484ef5
ba810b72
3b6168c4
3bdd4aa3
bb1d312d
3ae4ffe3
ba8bb019
bc0a9911
3b9bcc7a
3b16f934
bbaf0e0d
bc5e2e2c
3bfaf156
bbf1cf27
bc89ab2a
3be73c5c
bc921cea
3c3e19e5
bc4b622e
bc0b393c
b993f1d4
3c4ec24c
bc7fc352
ba86a6f9
3c90cd5a
bba2043b
3c505a54
3bb44831
3c4a336b
ba268609
bc5144b1
bc56be64
bc485d39
bc2f9683
3c1a945b
bc46e466
bb43765e
bc450506
3c3f9191
3c4716c3
baa6a001
3b2cf893
bbb68a06
bc093180
bc8754e0
3c8f20f6
bc3a3684
3c3006c4
3b4ce9be
3c6f1f0b
bc76e6c3
baa30ed2
bc2607f8
3c76e7c1
bb97bd05
bc745994
3c163c28
3bfdd357
bb76cf2e
bb3fc37a
ba83cdaa
bba28080
b907ed05
3c7d0fee
bc03c75f
bb7efdb7
bc609732
bbd51ada
3c88a5ac
3c473045
bb30213d
3c211552
3bc46ab8
3b9858ad
3c0076ef
bc6d857c
3c2f5a7d
bbd7f8f4
bc3d6d55
3bf25ac2
bb51b073
3c241857
3be84749
3b54f6f9
bba92797
3c66b268
bb3cfc4f
b9f629c6
3b902312
3c073f20
bc15acbe
bc4b8a68
bb141307
bb3a67fd
398b4a29
bc37431d
3c17508c
bc37515d
bbdcc878
bc7f6796
bc30aefb
3b056221
3be81ecd
3ba8d7bd
bc1835d3
3b718d3a
bc82bff4
3b8e7ff3
3c2b78a0
3c1b96c6
3c5a8c56
3c7e32d7
bc5c8992
3b511be3
3aa449a9
bc503a89
bc7a5ac2
3c176775
bbcdb75d
3b010165
3b08267b
3c0afc59
bc0cb134
3bdb7506
bbdb3c26
bb51fd0d
bc88503c
bc81176e
bbd0d315
3bac14fc
bb2d82e7
bc1f37ea
3c0fe442
3c86f584
bbc340e8
3c6aafb4
bbba61ca
3c44d303
3c0280e6
bc28316e
bc3eac52
3bc3582b
bc2aaaf2
bb28c79b
3c041697
3c89d134
3a228718
3c628086
bc7fc696
bb87e474
3bf30bc8
3b823314
3a33f156
bb9153e5
3ba2acfc
bbb0a972
3c534dab
3c3b1b41
3c6cbe15
bb1edbce
bc1fcbf3
bad774e9
3b69d850
bc473bb0
bc0821db
3c0b1bdc
3b80f288
bb420537
3c2f1d89
bc49da63
bc039bf8
bc0c4d8e
bc3bb34b
bbad7aab
3bf68e32
3bc6f844
bc1d9d36
bb87dc60
bbb017ba
3bfee2ec
bbfabf86
3bcd9ef8
bbe2c5f3
3b004659
bbb0c8e0
bc3e4ce5
bc4a023d
bc34cc4e
bbdfc8cc
3c3c1904
3c4b7c64
3c3080e9
3bebd9ce
bb124e95
bc46abb1
3c85606e
bbdacb5b
3b3e56ce
bc633093
3be7e2ef
bc1d499b
3c8f062f
bc82105e
b991b5ca
bc55e42e
3c2e45ba
3c398a5e
ba054a3d
3bfdba24
3aebdc4b
bbd587ad
3c4c1179
3c67d2a5
3bd77fbd
bc8d073a
3c814d06
3bb90a9d
bbeadf0b
bbe2fdaa
bc230509
bbe2da9c
3adb17fa
bb1b2c12
3c5c052c
3c825320
3c084a33
3be69b82
bb2fb4d3
3c83299e
bc60f0eb
3ae1b500
3b3cccf6
bc4d4c59
3a47d9eb
3bfa1b3c
bb5456de
3b88fe1a
bc278bf3
bbd6d3b5
bb90e1ab
3c4017c9
bbe55162
bc70eafc
bb16bea2
bc00011f
bc1acfaa
3c37ce33
bc53cbe7
bbfbec6a
3c2d3995
3c534a31
3932d4dd
bc3ebaa8
bb8efcd9
bb0c95dd
ba28bc80
3bf6226d
3a7b3c10
bc5cf17e
bc143d07
3baf1480
3becd983
bc38dc15
ba2cf233
b9ab9259
3ae070a1
3c74372f
3c43d9b9
3bacd14d
bc1e1bd0
3c112d26
bbffb6b8
3c14245b
bbcfdca2
bb443c63
bc10095a
bb6e31d1
bc826256
bc53f607
3c248d9f
3bd8441c
3c242f75
3c18c894
3c2aff8e
bc871434
3c2e4b29
3c624867
bc52bd21
3c7b6f83
bc1e6d03
3c8a62d2
3c17bfd0
3becfd91
bb743ff2
bc792c26
3bc5955a
bb93b4a0
bc0d683c
bc158506
bc5c069b
bba6b253
bc3c13be
bae0a513
bbb65ec2
bb9eee6d
3c369d36
bb46b6b7
bc67c2a4
3bc3b3fd
3c750817
bbd7de5f
bc65f1f2
bc5f3ad4
3c83f0be
3bb596f3
ba4bf811
3c1271aa
bc86dd4b
3b0c9456
bc86b553
bbaf7495
bb6a1380
3b73f83d
bbfefe2d
ba35084f
3c491a56
3bb35a48
bc79340e
3b54448c
3c84e1e5
3bbb29dc
3c73ca01
bc87bf31
bc3f5a3b
bb2bf2eb
3c66a727
3c8b055e
bc08e08b
bc26b7a8
3c30c10d
3c16b563
3c62ff21
3c4a5cb8
bafa7289
bc482e9e
3c39291a
bc6dfe4d
3c0b0caf
3c62281a
bc0adf04
3c72e44a
3a2b075e
bc8f2476
3bede0c1
bb9f8e9b
bc8cc15e
bbb54f6d
b9827d96
bc3f9417
3b54b451
3c5385a0
bba24ba7
3be4d8b4
3b255963
bbdc1ba8
3c3c34b2
3c5b5d34
bc26643d
babc6590
3bb2c746
38933857
bc2f1c38
bb9991b5
bbe4f22c
bc6e1ac3
3c73ff04
bc6cd9de
bb75455e
bc50aae5
bbc67cdc
3aeed66b
3c8b19c5
bc91e010
3b80dafc
bbf2f75b
bc37711f
bc5f20b2
3b6aa0cd
3c6b7704
bb9544b1
3b418467
3b421267
bb934496
3adb3abe
3c721a7d
3c7a6c92
3c50aef8
baf61f4e
3a4654f5
3c1bb215
3c85ada4
bc6a7a5a
bab93ed9
3c8af1d7
bb82550b
3c29a180
bc5dc75a
3c57c389
bc2cefdd
3c001d17
3c0945c5
3bdae8a2
bbbd9c16
bc1776d1
bc6d461f
3b79267f
3c7ec37b
3c31a384
3c1d2b19
3a881e83
bbed6716
3aac6752
bc1948ef
3c17790a
3ba66cf1
bb4b431b
39aa3207
3b603575
3b6d0961
bc8484c3
bb74576b
3b537428
3c40fb8e
382f5269
3a06f914
bc061516
bafba813
3b614d0c
bada2b8e
3c2228bd
3c804090
bb71e1cd
bc1e9c85
3c103395
3b9e6bf5
bc82f716
bba55bff
3c26daa7
bc6b6f47
3ac9cb3b
bc7d6119
bc40954f
3b5ee20e
3c782c01
3c51b496
3c36e039
baad852b
bbc55401
bc251f58
bbe8674a
3c8890f4
3bdf0bab
bc753486
b9d43bbd
3970ee25
bc7d7681
baa4e4c0
bc38ff0c
bc0500e9
bc8dc0f0
3c297372
3bb4190a
bc88f5f2
bb3b8857
3c472c40
3c2e7690
3c04c651
bb75941b
bc8f580f
3c29a06a
bc5379d7
3c4a1f50
3c5b03f3
bc7a5393
3c78c969
bc230cae
3bb0a51b
3c566696
3b81d0d7
bbb73e43
bc185ffb
3c80a88f
3c83ebdc
bb35437f
bba6f8ca
3c216248
bc0dde77
3c34d373
3c293d3f
bc385993
bc7be19d
3c8dfc64
3c358b3f
3c5134d7
3c912dbb
bc8bf11c
ba8c93b3
3c77a4b3
ba7cb8a3
3c0bdbae
3baebc3e
bc4d8d97
3bb73b58
3825accd
3b71eaad
bc28a747
baef9c86
bbfaefa4
3bf7ac70
3c459931
3c270d3a
bba20d28
3c324135
bbf21ae1
ba15cc05
3aa53164
bb8279f8
3bc96566
bc48b3d4
bbf17c9a
3c18348d
bb9a7996
bbc82071
bc55f0c2
3c69170d
bc898947
bc73b543
bc5306db
3bdf7af6
baee66d0
3c497cbd
3c3404be
3c229f49
3c12f548
3bfef70a
3c5629c1
baa73346
bc59a297
3beccdeb
3c6bdad5
bc81a3fb
3af1ce5b
bbbaacc0
bb87c940
3b73379f
3b477ed2
3c5983bd
3b29c36f
bbb61105
bc68608b
bc70b282
3c881f75
bbc12f80
bc2bf2ae
3c5241c8
3c0b07b3
bc6807f8
3c001340
3c833da3
bba467b8
3c79befe
3b146a3d
3b821982
bc4da219
3bcac96e
3c4a4f77
3ba98fd8
bb8f7d9f
bc1e9781
bc3fe073
ba41e4bc
bbb94cfe
3c482c10
baba4a0b
bb178098
3b1771dd
bb47ce2d
3b6c6bbd
3c48c5d8
3af26e13
3c2561df
3bb0787b
bc2c33df
bc2b0cb3
3c357006
bbad5f67
3c8bd861
3bd172ac
bc0a516a
bb432d2f
3b1190bf
bc9491b8
3c765ecd
bc362b04
bbc8c357
3a97d0fe
3c9610ab
bc5454e8
3c71ac4c
bc7e34ec
bb9e50e3
bb843958
ba99f158
bc4124fd
3b86f3f4
bc52addc
bc5fc1b3
bbb60e02
bbc4cd9e
3c294266
bc77665a
bbd0513c
3c8b8c5f
b901a73d
3c20ebf7
3c5abc0d
3c8af41e
3c8c580b
bbb2e7fd
bc82a142
bc41efba
bc42c384
3b0a548f
ba35a91a
bbec4751
bc4de730
3bac11c6
3c2882e4
3c509363
3c2e18f9
bbcf2e31
bb560a4e
bc318246
bba27303
3c543acc
3c4e75da
3c7d9223
bc3cbb61
3c4a7156
3c6f94fc
bc4026e6
3b90486b
3acbf630
bbb84499
bc6c869e
3bb12945
bc534803
bc6de857
bb431c34
bc8946ef
3c50af0a
ba7056e2
bb8b558d
bc7b956a
3b58b581
3afa939e
bba27531
bc8e90ab
bc66aeaa
3a994196
bc45fa9c
baafab76
bc2dc31c
3c8585c5
3ade5a46
bb99af06
3b981eb6
bc43abc8
3b4779e3
bba5daa3
390e21e4
bbb219ff
3b05a437
bb899ce6
3c3c7aca
3b4680e5
bb1efeb3
3b967e3e
bb8f21d1
3a25719d
3bbd14b3
bc90da4b
3b3d6e8b
3be0b6f4
bc3a8152
3c863c22
b9f413fd
3a6ff911
bbc3e51f
3c06ccbd
3c2aada2
bbebd46f
3bd1d4f0
bb89eb1f
3bf9dbcf
3c2dc0f4
bc177700
bac04aef
3b697042
3bdfde40
bb2b57dd
3c8d6853
3b869fc6
3b491019
bb7dafa6
3bcbc2bf
3a4cd451
3c3e0ef2
3c153653
3baeaedb
bc2ce025
bb96fdcb
3abf161a
bbee767e
bbf49bda
bc510cf3
bbc7d0a6
bad1cbb2
3c0c0d73
bad5761c
3b119e92
3c45afac
bc586a5e
3c57b40f
bb828809
3bf59c2a
bbdbebc6
bc2da5d6
3c11e3d5
3c69dba8
3c7ee376
3b1e24e6
3c0009ad
ba0ce194
3bf1412f
3c2dc3de
3c3235d4
3ba1ce62
bbfe9def
bc06bf63
bbab8c71
3bde7e95
bb3b5ce3
384df0b9
bbec1961
3c3b317c
3c02b5e0
bc8aa704
39f49d4b
3ac632b2
3c8d3512
3c1a2494
bc07964f
3b18cc43
bc66eb90
bc7fa2e3
3c814930
3a694235
3c5f031b
baf824e2
bb2eb648
bb30458f
bc372837
39c7798d
b8a50bbe
3bab8527
bb730c2b
3c79cc6f
3bd1f1b2
bc01da93
ba307d61
bc1ba2ca
3ba4f640
3c5f0c3c
bb1c369c
bc706874
38805880
3b6ba033
3c89d972
bba57172
3b0ccd54
3c732248
3ae7ddd3
3b02f270
bb8fc5b5
bc12aa2f
bc822529
3c8b3bd6
3c6bc9aa
3b362c59
3c07b414
3827c5ac
bc7de1b5
3bc00c01
3c93f188
3c4463b0
3c33af88
bbcdb54f
bbf21a3b
3c8232de
3bd56133
bc83d33f
bb44fbe2
3c85d474
3c868ee4
baf34f20
bbfd8dca
bc712d88
3c4df1a7
3b2cf49e
bc52d82b
bc76d79e
bbe00d60
3b725d22
bc03ea26
bc33e106
3bae4b4d
3c51822c
3b7faba1
bc1f3887
bc465898
3c70244b
bbe71b5a
3be3139a
3bfad02d
bb998e65
bbb7404d
bb26fb39
b9352aab
ba377dca
ba88c60d
bb756d84
3b127642
3c098ed9
3bcd344a
bc1b60fd
bc0daf69
bc84d55d
3a641cdc
3c85896b
3bdbe3ee
3c5167f6
3c504323
ba43eb38
bc7a38de
39afea7a
3c68a821
ba30b8b4
bbb10075
bbde21ee
bb6c95d1
bbd4fd26
bbdff90b
bb3e0f9b
3be62729
3c234937
bb250ef6
bab8a773
3c0670b0
3c53fc53
bc7128bd
bc2968fd
bc4fde05
ba83fdeb
3bee6a54
3adfb656
3c85bc1d
bb6e70cc
3c36d801
bc539668
3c6d55df
3c33ddb6
bc037c77
bba80235
ba97911b
3c69b607
3c398fbf
bb1618a4
3c21edf6
3b72b003
3bec6614
3adc92d7
bb8395ec
bad96380
3b05031b
ba6f1b56
39f50be4
bc1aab22
3c28dad2
bb6e85a7
3c8fc719
bc912641
ba880138
3c907edc
3c624f33
ba8c3b9e
3c11080d
bbea221b
bc2a5416
bc410c66
3c22c706
3a70273c
3bd14ebf
bc569fb5
3c08f4a5
3c30bb6f
bc44d18a
3b8b8c32
3c0ac620
bc0910b1
bb89fab1
bc628447
bb5d3283
bb7c9579
3c4b673b
3b34ff8d
3b1f50b9
bc65484b
bb90eb26
3c20a71c
bc631f05
3b1f6e9b
3c75f71d
3c11db64
3b1fd2c4
bb2efd37
bb1a6f98
bc854fb1
bb7542fc
3c3099a8
3c89ae93
3c53252f
bba28179
bbe91648
bbb2d568
3aa75374
3c39deda
bc524075
baa2a619
3bbb3094
3b98e63e
bc0431aa
bc3e3d58
3b9625e5
3c6c19c1
bc07ded5
3c3bf2c3
3c0ca364
3ab16b3f
bc6415a7
bb09e728
3b9d3b98
3c45cd30
bc118769
3c0534c8
bc20b682
bc151bc4
3ba96f69
bc12377f
3be19363
3c71e12f
3aa41b7e
3c8aa963
3b9825f8
bc62722f
bc73a2c2
3c023df3
bc259588
3c431b4a
bc07166c
3c0ceb41
3c6341e3
bc13161f
3abbe882
bc2544b0
3bb997a4
bc0cd482
3c1ed7e1
bb918466
bc33f19c
3b816f18
bbf2d702
3837b5e4
bc20a893
bb5d6963
bc13022a
3b8867f0
bb184b3f
3beb1707
3c0eaa0a
bc1050c5
bb9713c3
bbc88d96
39205b91
3b2bde9e
3b9e9e2a
3a82967b
3ad4632a
3c77c05c
bb6925a7
bab36dd6
3b843953
3bf45a7d
3bbc2f07
bc257e45
3a8721f3
bc71f9fc
3c1a1315
bc68f643
bb39b814
bc10ad8e
bb415bc9
bc6a0745
3bbdae6c
3bc7e59b
bab0cc77
3c5431c0
bc50604f
3be6c506
3b44b0e8
3b7a0134
3c4a8a0d
3b8e5373
3a266d00
3b3a325e
3b169438
3b8ed8f8
3b26256e
3c8f1648
3c38a59b
bc4dc9ff
3c89b94b
bc1413ee
bbebed46
bc7a6401
3c184930
3b82986b
3beee27d
3c24e1b4
bc742ad1
3a671907
3c6eaed4
bbbd8c41
bbf52840
3c64b70f
3ab55d08
3c36184f
3aba9eab
bb8abc20
bbc61ee4
bbecb5d4
3c0127dc
3b0f5ed0
bc29d5a8
bba06abc
3b3bb183
bb3b80ce
bba5c130
3c9083cd
3c493323
3bc359b8
bc09b8f1
bbef82b1
bb29cccf
bc3b7cda
3c7abaa2
bbcba835
3bdab8ed
bc788c78
3bc13756
3b5aa2ca
bc6604fb
bb53ff7e
bc5282dc
3c11c841
bc6963f3
3c554e0f
3c309402
bb844d80
3be61037
bbaba250
b99a594c
3c16c7d7
bb66934c
bc6ead7b
3b9d88a9
3c06f01a
bc02fe3d
3c1607df
3a17263c
bc7935f4
bc824b19
3a477700
bb878246
bb0fc4c4
bbb15b3b
3c54bac8
bc0c7202
bc6a10bb
3aefff57
bc8249ff
3c3f278c
3c57d952
3c3eaf5a
bbde1ce1
bc653678
bc05bd13
3a3bed79
bc3d8b1c
bb4a7397
3c774167
bc737ffd
bc6864ae
bbff476d
bbd2b3bd
3c331da0
3c838b50
bc2da2dc
bbdc4b81
bbca4caf
bc4ea6bf
3c3ca022
bc35f11b
bbe4e810
bbfbf741
3b9aeec2
3a2882da
3b549351
bc7a6930
bc51ffcc
3bab33dc
bbe47048
3b0f8e6d
bc0782d4
bc86420a
bb9cf164
bbd7006b
bc4ef100
3c337c47
bc2601bc
3c463766
3bc675fd
bc73177a
bc2c031c
baab2e86
ba39bb6f
bc14b220
3c5f1b75
3c2361ba
bc57c205
bbe184a6
3c33368d
bb8bc826
bb6b193e
3c86e274
3c75afaa
bb0ad911
3c09c9f5
3a6f4d11
3b3a54bf
bbc1bf41
bc4b8ae3
bc071035
3c3873c6
3b469db4
3c77c6ff
bbd5e3ad
bc7b45ea
3c1c14e6
3be79776
bbdcd2f9
bc0bfb12
bc445b29
3b1ebe2d
3bfe7fab
bc0add4c
bc3b0ba7
3be3c7bb
bc56791b
3b99913f
3acf1bff
3c72e0c8
bc89d36b
bb333c13
3ac33629
bc88c9bb
b9d83742
3c63f393
bc7b3257
3a735182
3c2ea3eb
bbfded43
3b078a78
bbf1c8a9
3b4d1550
bb48afc7
3c401506
bb06a468
bbc809a2
bc7a9a10
bb3e807f
bc4e2596
ba523ec9
bc680c9e
3c715710
3c723504
bbb3b188
bc4cd23f
bc49b921
3bd1b236
3c668809
3974be2d
3c4aa9d3
ba232828
bb869f09
3c6d846c
bbd8c0c5
bc7db3f3
3c3e0c68
3a1866e1
3c83ca38
3c706931
3c00822d
3be90d24
bc2aa134
bbeece7f
3c0759af
3be8ef31
bc3b7a2b
3b8225a3
bbdcd590
bc6b77d5
3b5c7eb1
39d756fb
3b3ecd68
3b93f01b
3c8c0823
ba6adb6f
3b11a795
bbe80bda
b9e46c62
3c81b466
bbaac4c9
3c7279a7
bb535129
3c4b12a2
bba327ba
3c77c75a
3aba86f1
3bb3b0ff
3befc976
3b807acf
bb926c45
3afe6b80
3b99db0a
bb22a2f6
3c3cb742
bbef510d
bbdecbb0
3c1914a1
3b273ee3
3c84c54a
3c48422a
bac10099
bc1c2d4a
3c8523d7
bc05f728
3bab7cf7
3c8b32d5
3be0c8cb
3c63c2e4
bc441234
bb1e58b9
bad2d62f
3c285c27
bacf0584
bbe72b57
3bdb5309
bc4205c4
bc2453eb
bbaf2183
3c48388a
bc4cb4d3
3c465012
bbe3621c
bb84aaa8
3c3d532f
bc0911c6
3c888a8b
bc4679ca
bc35ba5b
bc34bca3
bc09b60d
3c8247d3
3c264f2b
bc7b62b4
bb03117e
3c631fb3
3c54ef94
3a9a0391
3b17833b
3be0f4af
3c86b5fc
3c80b36b
3c338fcd
3a525703
bc7f64a0
bbd00028
bc23eae9
bbcc6b19
bbab0897
bc619afd
3bd08866
bbd1c554
3b58e60f
bc296df6
3c73a94d
3bf27ba4
3b20eff2
bbf9ca7e
bc40b08b
bc413fb4
3c504a03
3b4b6a07
3b88ad0f
3c0d447e
bc28e0d8
bc85ac3c
bb2c2a0c
bc8dfe40
3c340ed9
3baf7f38
3c6e8675
bc3bd268
bc6b63bf
3ba0a798
3a0d1653
bc064dfe
bc4c3b65
3c49695e
bc79cbe9
bbcdb14a
bb7d5710
3c50c2c6
ba8a50a6
3a37d35a
3a169ca9
bc00d49e
3bdfa62a
3bd7ce68
3be2a662
bc755347
3b33bdc3
3be975b0
ba1d5faa
bc19c659
bb2de0db
3c76842f
3b9496ec
bbb6300c
bbbad8a2
3b353fdb
bc7fdf6c
3c862189
bbbf27c6
3b5249cf
3bc8ebe2
bc31d548
3b4da866
3b90362c
3c8a2e56
bc58140a
388e6589
3c37ee4f
bc7a7e2d
b9f7c708
3b50e4ca
3c077c72
bc61a1c5
3b8c2389
3c6dce05
39ffb1da
3b995112
bbd710eb
3c3e6b8e
bb7435ae
bc1d00d9
3b936f51
3c8eb330
bc852f81
bbeabfc9
3c0ee1f8
bc097490
3c294260
3b302247
3c8823e5
3c5ae0b5
3c570c26
bb16f2a0
bb3f4daf
bc3c18c1
bbdc75dc
3b82de84
bba6dfc4
bbb4d634
39d27819
3c8391c7
bb9eb562
3b87ae66
3c3bdf3e
bc41aea6
bc6831fd
3bc8f3f8
bb2d8617
bc21e0a4
bc7661b3
bbe298cd
bac5d562
3c485ca6
3ba24443
baf5b695
3c4e4695
bc5f15e1
b92f60e7
3c9803b7
bbcde2c6
bbbac100
3b3ff9cd
bb9ff4dd
bc7285f5
3c551254
bb42a984
bab91716
baf4f571
b840f020
ba854beb
bbf0df33
3c45d18c
bb2a84fe
3c461d8d
bb08f276
3c61ec6b
bbaca43d
3c33441a
bc2631e3
bc397c57
bc70f66f
bc2a6b48
3c3b802a
bc5f5fc5
3bca21f8
3bf05a12
3b0980e2
3b41a00d
bb0fe787
bc52f94f
bc00fc73
bc19de09
3c1caadd
bc76d19c
3c4d6762
bbee6ba3
3ab015ff
bc46b3fe
3c81482d
bc8374a0
3c2c684a
3b27f726
3b348ac8
ba0df03b
3c3b7824
bc2b08e1
b9b93f6b
3b1cca8d
3c8be35c
3aefb4ae
bc4db345
bb4ebd0e
ba7fc42c
3ba620d3
bb50c349
3bad7150
bc93d105
bc814537
bbc844ca
bc90ecc9
3c36dddf
3ab1bfdf
3c376864
bbcc4f17
ba7c8439
bc0a58a5
3c095715
3b876fd2
bc33db46
bc8cd854
bb08c0ae
3c3f8d20
3b266732
3c4d34e0
bc910f2c
bc84dde8
3c386c7e
bc1382ff
bb83627e
3c3a8734
bc25eb95
bc4c33a0
3c5290cc
bb72e4a8
3b436120
3b9cacab
3bb4014b
3c6911e0
bbe8c7eb
b95acc8c
bbf65368
b8d4494c
bbb7f411
babd5242
3c86e939
bba027e4
b85d0a32
3c2673f3
3c5ff72d
3a87540c
bc2d1838
bc588c57
bbd38828
3be29b26
3be58743
bc8d09d4
3c229cba
baae8d2d
bb996926
3c656056
3ba9aae1
ba3c4ae3
bc71719a
3c89d3cf
3a7e14bb
3c7130b8
ba7912c0
bc69d23b
bc55a97e
3b9e76ca
bc35ca32
3c563084
3c7d7719
3c262305
3c0e2ddb
bc89a0e8
3bfa8c0f
bb8f6ed3
bc075aaa
bc328c06
3c77badc
bb93d991
bc0a89c0
bc21e551
bb03c196
bc335be9
bc1824c3
3b5fe430
bacca024
3c85a653
3bac8b60
3c471c12
bc609461
3c1c874f
3c2a18f4
3c003f4a
bc7ca490
3c23a7fb
3c780608
bbd3c80b
bbbb73d9
3c4d31e8
3c203d67
bc01400e
bbb33b05
bb760a19
3a783e7c
bc5c49e6
3b925071
bb992cc2
bc375505
bbcc80e9
bc8532d6
3c5d2166
3c65391b
3c164435
bc657554
bc5e7f83
3c5f4ac1
3c4d26ce
3c85197d
3b4f168f
bc62547d
bb39314f
bbbda6c8
bb9cc153
3b49aa3a
bc02bfb1
bba4e333
bc34f960
3bc6c236
3ae7cf90
3c18a013
3b1f60ae
3bfbfcb9
3b67c3f4
bbff8137
3c37e5c7
bc0adde5
bbf94c56
3c14bc02
bc4ae28f
3b3a73b3
baab65b0
b8911f78
bb90551c
3c3d0112
bc2769d3
bc3f189e
bc3fd107
bbf5834f
3c310706
3c913115
3c1a56f0
3c4b0c68
3bf2a09c
3c85c7a4
bb4403f7
bc81fa60
b9e270e8
baf07300
3ba8e036
3a5f7060
bc1babf3
bc6c389b
3c818cfb
3ba880a1
3bc83980
bc0f9aec
b9bd6d45
3c1acdcf
bbe82131
bb9bba82
3b9a3b48
3c61fd67
bc0d159a
3c2b5204
bb9645ce
bc4e6a1d
3bfcfa1a
3c701630
3b922461
bc4fa98d
3b5ea530
bb7d47ff
3c555d21
3b1b68d6
bc83a9ec
bc7c1c4d
bc22ec0f
bb1a9399
3c12e25e
bbadb9af
3bc29a06
3bcf2c7b
bb5f5e9b
3ba3886c
3c74fec7
3c49c5e1
3afc297e
3b3de7ed
3af11a45
3bda0e70
bb988281
3c3b2c46
3970cdef
3c55788b
3aa6b787
bc1b3e6e
3c5132d9
3c087ed6
3bb64891
3c0ac9ea
bb64168d
b9cc8f54
bc850928
babc4414
3badedaa
3b91a193
3c5309fe
bba233ec
bc7c9515
398e8061
bc576eae
bc899cf6
bbffce5f
bc53e0df
bc17997e
3c8738ac
3a46a074
3b96d3d1
bc1b1589
3c80777d
3c0d8cb2
bc2d50bf
bbf00a02
bc1222d6
3b8cf936
ba7ffcd0
3bd3c02d
3c4db088
bc80d447
3c41c023
bc0b32ba
3c814942
bc8524cf
bb535215
3c7df4c6
3bb5b9f4
3c24a663
3ae7558f
bc64ceb5
bbddf834
3bd5186d
3b67ccbf
bc83f5cd
bc8a7c8f
3c7fc885
bc818781
3c30f8d3
3c7ac50b
bc1ed4bb
3b32306e
3c8c01b6
3b9568ec
bc8c7697
bb831596
3b04d50d
bc888436
3c0f86ba
3c77b3c6
bc16891e
3c8dcbbb
3c18cd34
3bcd16ee
bc54e5bd
3c74435d
bc7901a4
bbf4c1d4
bc5b6b9d
bc0cffa4
3ae513da
3c834edb
3c70677a
bc05b7e2
3c46e1e0
bc293cd6
3b4fe528
bc8635b0
bb66ebe1
3c09ff14
bb9cc177
3afea9b6
3b6a273f
bc6242ea
3c2382ec
3c395c15
bb79b6c3
bc54137e
3c75f042
bac141a9
3c2ab9a2
3c5106d7
3c1771bc
bba76d8b
3c137eb3
3c7b77e5
bbbd7e39
3c0deea4
3c338ebe
b9e8d29a
3c800d6d
3b7851ad
bc41fe24
3c44d5ba
bbe1f250
bb3d9c69
bc3c6d34
3b87bb8f
bb1173ca
3b24664d
bbc4047a
3bd92177
3b989b51
bc88aade
bc4fa5a9
3c7bb45e
bb256db4
bbc83ecb
badd60d5
3c0e165a
bc85a53e
3bf89b86
3c8c9582
3a9dad25
3c0fe361
ba8a665c
bb617a8c
3c4786b1
39633bd8
bc7cb2a7
3b3af147
b9c39e61
bc14fdc7
3c6eda57
3c5bc19a
3bccde55
bc30522f
3c2f8a8f
36b4dbbf
bc515daf
bc1326d5
bc8977e8
bc4e449b
3c3c1e40
3c123ad7
3bf80922
bb30408b
3c8a9303
3baceb6e
bc875dcc
bc328629
3c85e315
bb1e77ea
3c0861a1
3bfbbf6f
3b681372
3c814491
baabcf40
bbe0b3dd
bc7e5975
bb6618c6
bc8d7e7e
bbcb9462
3a181c41
bbba8256
3bd0d96a
bc047b96
3c440edc
bc22f2f5
3c3cc8b6
bc6bc461
39784b5e
3c18db3c
bc31b42c
bc26f2d0
bc17175c
3c8b4086
bb9c6e94
3bc5f089
bc568711
bc5319a2
3ba56c43
baa417aa
bad8ef56
3c4c404d
3c1538c8
bbe4c275
bc73140f
b9a8a7d4
bb98c303
3c7e4651
bb49fc5f
bbd67c45
bbf2b3f0
bbd9449d
ba2e0468
baac76ec
bbba82e4
bbadf781
bbae6ca1
3a801166
3ba04ec2
3c39f93c
ba9eb9d9
bb9849bb
3bf58c7d
3c2fc446
bbd43446
3c67ed15
bc8cf69d
bbea3f26
3b88f18e
3c0d0818
bb59fce1
bc33667a
bbb405e6
3bc6ce8f
3c4c7458
385af153
bbfa6306
bbc90f8f
3a0c3c4a
